11101001 00011001 10101011 10101001 
00110000 11011011 00100000 11100111 
11101110 11000111 01010001 10011001 
01110001 10001010 01001001 10000010 

11101010 00011011 10111000 00111000 
11101001 11000011 01000110 01111101 
11110010 10111010 00001110 10011010 
01111000 01000101 01000000 00011110 

10001101 10001011 00010011 00111111 
11011011 00100101 00011100 01101000 
01100000 10010011 10100100 11001101 
01100111 01110011 10010100 00000110 

10010001 00111000 10100011 00011100 
01011000 01101110 10001111 10111001 
00001111 11101110 01011010 11100000 
10011000 00000100 00100110 10011110 

11100110 00100000 11001001 01111010 
01101001 10000010 00010000 10100010 
01110110 00010000 00010010 01110100 
01111011 00101110 11000001 01010111 

10100001 01110011 00100011 10000011 
10110100 11100110 01001101 10110100 
00110111 10011000 11000000 10000101 
01101100 11110001 10011110 11111000 

01000001 00000110 11111101 11111010 
10010010 00010110 10100001 11011011 
10010011 01110111 00110111 10010001 
11000100 00101110 11000011 00011010 

01101010 10011110 11001110 11111101 
11011100 00011000 01000111 11011001 
01010000 11101001 01101010 01000000 
11100110 00011101 11100010 01011110 


01000100 00010110 01110110 10111000 
10100001 11111000 00110010 00100111 
11111001 01101110 01100000 10001110 
10110100 11110101 11101000 01010100 

10100101 11111010 11001001 01100101 
10100000 10010001 10001010 00101101 
11110011 00010100 11111010 00000100 
00111111 11111001 11100110 11110110 

10101000 11100011 11000000 11001000 
11101100 10011001 00101101 10100011 
10101001 10100100 10001100 10111000 
11011010 11010100 11100001 11110101 

11101011 00001000 01110100 01000000 
10100001 00100111 10011011 11110110 
01101111 10010101 11001110 01110110 
00100111 00000000 00101111 10110010 

01111000 01101001 00011011 01001010 
01000010 10000001 11010110 01101010 
00000111 00100100 11110111 11111010 
10101110 01010111 10011001 10011000 

00100011 01010100 01001100 11100100 
11001110 00110001 10101101 11011011 
00110011 00000100 11011101 00010110 
01011011 00001001 11010100 00110000 

10001110 00011100 11111001 11111000 
10011000 10111110 11011001 10101000 
11110100 11101010 10110011 00001010 
11010101 10011100 10111011 00011100 

00100011 10001111 10111001 11101110 
10001110 00111001 01001101 01000110 
01010111 01101011 01110010 00111101 
11110011 10111011 10110111 10010110 


11110010 00101001 10111111 00001101 
11001011 11100000 11111010 00001100 
01000011 11010111 10011100 10011000 
01101001 11111010 11001110 00000000 

11110110 01110101 11010011 10111001 
01000000 01011111 10011101 00000111 
10011110 00001001 01111110 11010100 
10101111 10100011 00000111 01001010 

10101100 10010011 00100101 11100110 
01111110 00100000 00111111 00110000 
10111111 10110100 10010101 00011010 
00000001 10111100 11010110 11111010 

01010010 01010100 11011101 00111111 
01110111 00111011 10010011 01100110 
00110111 11011000 01010010 10011010 
01100110 11101000 00000110 01000010 

11001011 11101100 00100110 11000000 
01000100 11000111 10011111 00110001 
11001001 11101000 11001100 10110010 
10101100 01100111 11111111 11000110 

11010011 10100000 01001111 11100000 
00111010 00110000 01001111 00010110 
10101100 10011001 01101001 00010100 
00111010 10110111 00000011 10000100 

10000011 11101011 11001111 00000111 
01111000 01011010 11000110 11111010 
00100111 11111111 00011010 01101101 
10000000 00110101 00001001 10010111 

00000010 01100011 01000000 10010110 
10011011 00011001 00111111 11011101 
10000111 01011000 01101001 00010101 
11000111 01010000 10100100 10010011 


11000101 01011010 01110000 00101111 
01000110 11011011 10101000 01010010 
00011001 01110010 01010011 00011010 
00100001 11100100 10011011 10001000 

00110011 00011100 00011110 10000111 
00110110 11110011 00011100 00000011 
00000110 11110000 01110110 11001100 
10110110 11110111 00110001 01011100 

11001011 01001010 11111001 10001101 
11100011 01011000 01101100 01010001 
01010110 01000001 01000101 01101010 
00000001 10000110 01000000 11011100 

00111101 01000110 10111011 00110101 
11111101 11000100 01010101 11100001 
01110001 11110110 00001110 11110001 
01101100 10010000 10000100 11110011 

01000101 10001100 00011010 10001001 
11100101 01110100 00101101 11011111 
10011110 10011111 10110111 01100110 
01000000 10010011 00110010 10100011 

00000100 01111100 01101001 01100111 
00100111 11000110 00000111 10101000 
00001011 00111101 00100011 11011011 
10000100 01010010 01011111 10110011 

01001100 00100011 11000101 01011011 
01011000 01111110 01011010 10101011 
00111000 10011001 10001010 01110111 
00011111 10101010 00000000 11000010 

10000011 11010000 01010100 00000000 
10100101 01010001 01000001 00111010 
00111011 00001110 00110000 11001111 
01100001 01110111 10101111 00001100 


01010111 00001111 11011100 00101111 
01110110 10101011 01111011 11000010 
10011110 00000010 01000001 01011011 
10010010 11001111 00100010 10010011 

11110111 11110001 01101100 00011010 
10001010 10011101 10010100 11000000 
10010010 10101110 11110011 10110011 
10100010 00011100 01110100 10111101 

11001001 01111010 11001001 10000010 
10100000 10111111 00100000 01011010 
11110111 01100111 00100001 01111011 
11000110 01110100 00001011 01000000 

10001010 00111010 00010001 00100111 
11001110 11011101 10101110 00101111 
01010011 11101000 11110001 01110110 
01011101 01010011 10010001 11110100 

00010001 11011110 00011010 10100110 
11101011 01010010 10111111 01100101 
01110011 11000100 01100011 00110011 
11001110 10111101 01001100 10111011 

01011000 01010111 10010101 11111001 
11011001 11000010 01101110 11001000 
01100001 01001011 01101010 01111011 
01011101 01111110 11000011 10001101 

01001100 01111011 10010001 10010001 
11110111 00000100 01101101 01001001 
01110111 10001010 10100101 00000001 
01001000 00011101 11010111 11100011 

10011101 01010100 00100111 10000010 
10001110 00101001 01011010 11011101 
10001011 00010011 10100111 01110000 
01100001 00010011 10001000 11011101 


10010011 01111100 11100011 11010010 
11101001 11000000 01011001 00101100 
01011111 01010100 00110101 10110111 
10111011 01111000 00100001 01101101 

11000110 01100001 10001110 00101101 
00000011 10110100 00000111 00110110 
10011001 11000111 10000111 11000001 
01101110 01001101 11001101 10001110 

11100101 11110010 01010011 11111101 
11101000 00111010 11111011 01000110 
10000011 11001101 01001100 00111101 
11111000 11111101 00011101 00000101 

01110101 01100110 11001010 00010100 
11100010 10111000 10110010 11111010 
00110011 10101100 00011001 01010111 
00110111 01001000 00110011 11100101 

01000011 00011001 00100100 01111100 
10010111 11011111 11111101 01101101 
00011000 10110000 00111010 10010001 
10010011 01110111 10010000 01011010 

01010100 01010010 11001000 10010110 
11011010 11110111 01000001 11111111 
01011111 11010000 11100001 01001111 
00110001 01000111 11001100 00111010 

01010110 01011111 10101010 10110010 
00010111 01000100 00000010 01010110 
11101001 11000101 01110100 01110111 
10000110 00010100 01110011 00111010 

11011011 00111001 00100111 01000001 
11010010 11000100 11000011 00000000 
01101000 00001101 10001001 01000100 
00111100 00110100 11000011 11101001 


01001010 11110001 11011010 00011010 
11101101 11010000 01010011 11010111 
01110011 11010110 01100010 01100000 
00010010 10010111 11111111 10110001 

10100101 10001010 11000011 00111010 
11111001 10110000 01010000 00010111 
00101011 11110010 01011111 10000100 
00100000 00101010 00111001 01001101 

10110011 00101010 10100100 01000010 
10111011 10001010 00101100 11001101 
11101010 10111000 10010100 00111011 
11111100 11011110 10101101 01011110 

00001111 00100111 10000111 01110101 
01101111 01110111 00110111 11000111 
01111010 00000001 11101010 00100110 
10101110 11001111 01000101 11101110 

10000100 01111100 00110010 00110010 
00000101 10100110 01110011 01101110 
01001000 00001101 11000100 01000000 
10110101 10010111 11111111 11010110 

10010111 00111100 10110101 11100011 
10001000 01000001 00010111 00010101 
10001010 11110000 10111000 11111100 
11001010 00100000 10100011 10101100 

01110110 01110101 11010000 10001000 
10010000 01110101 11000011 10011000 
00000001 00111110 10011010 10110000 
10001000 11000100 01011100 10100010 

01110010 10100111 01001011 11100011 
00011110 11010100 01010001 01001110 
11101010 01101000 11001101 00100100 
01111110 01011011 01000111 11110000 


00111000 10110111 11111101 11111011 
00111111 01001100 10110001 10100110 
01011001 10101000 00010101 11101010 
11001100 11011001 10011100 11010111 

10100101 00011000 11001010 10011000 
01101101 01101101 10111111 10100000 
01011110 10111001 11111110 11001000 
11001101 01010111 10110101 10000101 

11111111 01100011 01111101 00001001 
01111011 10110100 10111001 11001100 
01001111 11001001 10001111 10011000 
00001010 01000000 01011000 10010000 

11111011 11101101 00111001 11011011 
10100111 11011000 00100111 01111101 
00111100 11100101 01111001 00000010 
01001111 01110101 00101101 11000101 

01110111 01101000 11100101 11011000 
00110101 11001101 00011101 00100011 
10000111 10010000 11100010 01101101 
11100011 10000010 01001111 00101011 

10011000 11111101 01100110 11000101 
10101010 11110100 01001111 10001010 
00010011 01011111 10101101 00000111 
10110110 00111111 00111001 01000101 

00010000 10111011 10011101 00101010 
00111110 10011000 00001000 10010010 
11011001 01100100 10100001 11011100 
01111100 00000100 10101101 11100001 

01100110 10011101 10101111 00000111 
00010111 00110101 01100101 10111110 
10100101 10110110 10011100 11010111 
00111111 00110100 10111011 00000110 


