00011010 11111011 10000010 
11000111 10100101 00001011 
01010001 01101110 01001001 

10011100 00100010 11101000 
01101001 10010001 00001101 
10100011 10110011 00101100 

01111000 00110110 01011001 
11000001 10110000 11010010 
00010010 01111011 00000111 

10011000 11001000 10001011 
01110100 11100110 00001111 
00011000 01001010 00000001 

00001001 10011010 00110010 
10111000 10101000 00110011 
10010011 11111101 10110101 

10101101 10011010 11001100 
10000011 00010110 11001110 
10001010 00111011 11110110 

01011000 01110010 01111101 
01011001 10110010 01111111 
11101101 01001001 11010100 

01000000 11110100 10111000 
00000110 00011100 11011111 
01101010 01100100 11001010 


11110110 11001100 10110001 
00100001 01011001 10101111 
11100010 00101111 01011110 

10011011 00001000 01011100 
11011001 10000011 10100101 
11010110 00010010 01000000 

11110111 01011101 01011011 
10100110 01000010 01010100 
10001000 00100010 00010001 

11100110 10010101 10111010 
01100001 10110101 01101000 
01011100 10101111 11111010 

11110101 11100011 10010101 
00101000 01110000 10100110 
11100100 00111101 01110100 

11010111 10101000 01001100 
10100111 00011100 01001010 
00101000 10010101 11100001 

01011101 11000000 01011000 
10111100 11000100 10011110 
00011001 00110010 11110111 

00001111 11011101 01111011 
00011100 10101001 11111000 
00000100 11110101 01101100 


00011110 01001111 11010001 
11001000 11000110 11001111 
00000000 10010010 11000111 

11000101 01101110 10100001 
11010000 00001110 10010100 
10000011 10100000 11010011 

11010100 00010000 00100011 
01100100 00100000 01100010 
00101101 01000100 00000100 

01111100 10010101 00101101 
10010000 01011000 01110000 
10111101 11101100 00100101 

01011101 10101101 00100000 
10011011 00101100 10110000 
00011100 11101001 00110011 

00110101 01110011 11011111 
01110011 11100010 10111010 
01101010 11001110 10100011 

10110100 01111110 01100101 
10110011 01000100 10000101 
11111100 11011001 01100011 

10100010 01100111 10011010 
01111000 10010010 01010110 
00000100 00000101 11110111 


00000110 00000110 00001010 
00000011 11110111 10101011 
10110010 11110000 11110110 

01111100 10011110 00111100 
10100000 00010000 00110101 
01110010 10110001 01011100 

11001101 11011110 01101110 
01111001 01110101 11010110 
00010001 10000111 10100110 

11010101 01010111 10000010 
00101111 01011111 01110110 
01011000 00111000 00110101 

11100100 10101011 11110000 
10001010 11101001 11010111 
10110111 00001100 00001100 

00111100 01111110 01011111 
11101110 10111100 10110110 
11110010 11010000 00111000 

01011100 00011001 10101101 
01001011 11000100 11000101 
10010010 11000010 11011001 

11010111 10000010 01001000 
01101110 00100001 11111100 
00110010 01100011 01110101 


01010001 01110010 11101000 
11000010 00111010 00010101 
00101101 00100000 00111101 

01011110 11000010 10001101 
01000101 10011111 00110000 
10001010 01110110 01010001 

10101100 00110011 01100011 
10101000 01000111 01100110 
00001000 11110101 11110101 

11011101 00100100 11001000 
00100011 00100110 11000010 
01010100 01110000 11010101 

10001111 00101101 00000110 
11011101 00010111 11101110 
01011100 00011001 00000000 

00000000 11100111 10110111 
10110100 00110101 01011111 
11111000 00011001 11001111 

10010110 01011111 10001000 
11001011 00111010 00011001 
01101111 00001111 10000000 

11000111 10001101 01011111 
11110111 00010100 00011010 
11100100 01100110 10000111 


11110000 11001010 01111100 
11110101 10010111 00011111 
11001000 11111001 00001000 

11011101 00110010 11000100 
00110011 01100001 11110101 
01100110 11110101 01011110 

01110101 11001000 00110110 
00101111 01000001 11000100 
01011110 01000111 11110011 

10001100 10100101 11101001 
10110101 11011010 11111000 
00111101 11011001 11111000 

10100000 00101011 01110011 
01010110 10100000 00001101 
11010110 11011101 11011000 

11001000 10000000 01011100 
11100010 00011111 01100011 
10001101 00100100 11110001 

00100010 01101000 00010111 
11011001 10100000 10011111 
11101101 01001111 11111101 

11001001 10001100 00001001 
10000010 10010010 01001100 
00010111 01010101 10100111 


00100100 10100001 11110111 
01000100 10001100 11010000 
01011111 01101101 11001010 

10100111 10100000 10000000 
11100101 01100011 10111100 
10011010 01011011 11101000 

10000100 11110001 11001111 
01110010 10111011 00100100 
01100100 11100110 10000001 

00011111 11101100 11110101 
01010110 00101011 00101100 
00111110 11100011 01100010 

01000011 11000001 11000011 
00111011 11010100 11101110 
00101000 01111101 11011111 

11010011 11000111 11101110 
11001111 11111111 10011111 
11101110 00010110 00000011 

11001110 10011001 00111110 
01010100 10111010 00101000 
11000000 00011110 11100111 

00101001 01111011 01001010 
11000101 10110010 11110101 
10111110 11101111 00011001 


00110001 11111010 10010101 
01010011 01010010 10111110 
00100111 10100100 01000010 

10101011 00000111 10010101 
11011001 00010000 11000110 
01010111 10101100 01111001 

00110101 10100111 00100001 
11110110 10100011 10110100 
01011100 00000110 10110100 

11011111 01110100 10011010 
10111011 01010000 00000001 
10010100 01011101 11010010 

01111001 10100001 10100010 
01000111 10111010 00001100 
11000101 10000011 11010000 

00100000 10000111 01000010 
00101100 01011001 11010011 
01011001 01000111 00100000 

11100010 01010000 10111001 
00101011 10100001 01011000 
00111001 11001100 10100101 

11101100 10101111 10100000 
10001011 10100100 00000111 
11111011 00110101 00111000 


