01010000 11011000 10000011 01010010 
11100000 11100000 00110000 10011001 
01100110 10100110 10110011 00100000 
11101101 01111101 01110110 11110101 

00111101 01001000 00100010 10011011 
11010010 11111001 01110101 01101001 
00011010 01100001 11010101 11110001 
00111110 01110101 11000111 00010010 

01100000 10001000 01111101 01000110 
00000001 11011001 01110111 11101011 
10000010 11011000 10011111 00011101 
11100111 10101111 10100001 10100010 

11100110 10001010 11010011 01110111 
11000110 01010111 00101000 01110111 
01101110 01011110 10010010 11011010 
11001011 01011011 10100100 10001111 

01101011 01001100 10101110 01000011 
00001100 01110000 00001111 10000110 
00101001 00100011 11111110 10011011 
01001110 11101101 00101001 00000111 

01001101 01000111 11101000 00100010 
11110111 00010000 00100101 10011110 
10000001 01110011 00010101 10001101 
10100001 11011110 01011111 10001100 

10100001 10001101 00110010 11101100 
01100100 01101011 00101111 10100010 
01000100 01001100 11010100 10001100 
10111001 11010011 10110110 00100101 

10110111 00001110 11001001 11110000 
00100110 11000111 01011011 01101111 
10110100 10010111 11100011 11110010 
01111011 11010111 00000111 01010001 


01010000 11011000 10000011 01010010 
11100000 11100000 00110000 10011001 
01100110 10100110 10110011 00100000 
11101101 01111101 01110110 11110101 

00111101 01001000 00100010 10011011 
11010010 11111001 01110101 01101001 
00011010 01100001 11010101 11110001 
00111110 01110101 11000111 00010010 

01100000 10001000 01111101 01000110 
00000001 11011001 01110111 11101011 
10000010 11011000 10011111 00011101 
11100111 10101111 10100001 10100010 

11100110 10001010 11010011 01110111 
11000110 01010111 00101000 01110111 
01101110 01011110 10010010 11011010 
11001011 01011011 10100100 10001111 

01101011 01001100 10101110 01000011 
00001100 01110000 00001111 10000110 
00101001 00100011 11111110 10011011 
01001110 11101101 00101001 00000111 

01001101 01000111 11101000 00100010 
11110111 00010000 00100101 10011110 
10000001 01110011 00010101 10001101 
10100001 11011110 01011111 10001100 

10100001 10001101 00110010 11101100 
01100100 01101011 00101111 10100010 
01000100 01001100 11010100 10001100 
10111001 11010011 10110110 00100101 

10110111 00001110 11001001 11110000 
00100110 11000111 01011011 01101111 
10110100 10010111 11100011 11110010 
01111011 11010111 00000111 01010001 


01010000 11011000 10000011 01010010 
11100000 11100000 00110000 10011001 
01100110 10100110 10110011 00100000 
11101101 01111101 01110110 11110101 

00111101 01001000 00100010 10011011 
11010010 11111001 01110101 01101001 
00011010 01100001 11010101 11110001 
00111110 01110101 11000111 00010010 

01100000 10001000 01111101 01000110 
00000001 11011001 01110111 11101011 
10000010 11011000 10011111 00011101 
11100111 10101111 10100001 10100010 

11100110 10001010 11010011 01110111 
11000110 01010111 00101000 01110111 
01101110 01011110 10010010 11011010 
11001011 01011011 10100100 10001111 

01101011 01001100 10101110 01000011 
00001100 01110000 00001111 10000110 
00101001 00100011 11111110 10011011 
01001110 11101101 00101001 00000111 

01001101 01000111 11101000 00100010 
11110111 00010000 00100101 10011110 
10000001 01110011 00010101 10001101 
10100001 11011110 01011111 10001100 

10100001 10001101 00110010 11101100 
01100100 01101011 00101111 10100010 
01000100 01001100 11010100 10001100 
10111001 11010011 10110110 00100101 

10110111 00001110 11001001 11110000 
00100110 11000111 01011011 01101111 
10110100 10010111 11100011 11110010 
01111011 11010111 00000111 01010001 


01010000 11011000 10000011 01010010 
11100000 11100000 00110000 10011001 
01100110 10100110 10110011 00100000 
11101101 01111101 01110110 11110101 

00111101 01001000 00100010 10011011 
11010010 11111001 01110101 01101001 
00011010 01100001 11010101 11110001 
00111110 01110101 11000111 00010010 

01100000 10001000 01111101 01000110 
00000001 11011001 01110111 11101011 
10000010 11011000 10011111 00011101 
11100111 10101111 10100001 10100010 

11100110 10001010 11010011 01110111 
11000110 01010111 00101000 01110111 
01101110 01011110 10010010 11011010 
11001011 01011011 10100100 10001111 

01101011 01001100 10101110 01000011 
00001100 01110000 00001111 10000110 
00101001 00100011 11111110 10011011 
01001110 11101101 00101001 00000111 

01001101 01000111 11101000 00100010 
11110111 00010000 00100101 10011110 
10000001 01110011 00010101 10001101 
10100001 11011110 01011111 10001100 

10100001 10001101 00110010 11101100 
01100100 01101011 00101111 10100010 
01000100 01001100 11010100 10001100 
10111001 11010011 10110110 00100101 

10110111 00001110 11001001 11110000 
00100110 11000111 01011011 01101111 
10110100 10010111 11100011 11110010 
01111011 11010111 00000111 01010001 



01010000 11011000 10000011 01010010 
11100000 11100000 00110000 10011001 
01100110 10100110 10110011 00100000 
11101101 01111101 01110110 11110101 

00111101 01001000 00100010 10011011 
11010010 11111001 01110101 01101001 
00011010 01100001 11010101 11110001 
00111110 01110101 11000111 00010010 

01100000 10001000 01111101 01000110 
00000001 11011001 01110111 11101011 
10000010 11011000 10011111 00011101 
11100111 10101111 10100001 10100010 

11100110 10001010 11010011 01110111 
11000110 01010111 00101000 01110111 
01101110 01011110 10010010 11011010 
11001011 01011011 10100100 10001111 

01101011 01001100 10101110 01000011 
00001100 01110000 00001111 10000110 
00101001 00100011 11111110 10011011 
01001110 11101101 00101001 00000111 

01001101 01000111 11101000 00100010 
11110111 00010000 00100101 10011110 
10000001 01110011 00010101 10001101 
10100001 11011110 01011111 10001100 

10100001 10001101 00110010 11101100 
01100100 01101011 00101111 10100010 
01000100 01001100 11010100 10001100 
10111001 11010011 10110110 00100101 

10110111 00001110 11001001 11110000 
00100110 11000111 01011011 01101111 
10110100 10010111 11100011 11110010 
01111011 11010111 00000111 01010001 


01010000 11011000 10000011 01010010 
11100000 11100000 00110000 10011001 
01100110 10100110 10110011 00100000 
11101101 01111101 01110110 11110101 

00111101 01001000 00100010 10011011 
11010010 11111001 01110101 01101001 
00011010 01100001 11010101 11110001 
00111110 01110101 11000111 00010010 

01100000 10001000 01111101 01000110 
00000001 11011001 01110111 11101011 
10000010 11011000 10011111 00011101 
11100111 10101111 10100001 10100010 

11100110 10001010 11010011 01110111 
11000110 01010111 00101000 01110111 
01101110 01011110 10010010 11011010 
11001011 01011011 10100100 10001111 

01101011 01001100 10101110 01000011 
00001100 01110000 00001111 10000110 
00101001 00100011 11111110 10011011 
01001110 11101101 00101001 00000111 

01001101 01000111 11101000 00100010 
11110111 00010000 00100101 10011110 
10000001 01110011 00010101 10001101 
10100001 11011110 01011111 10001100 

10100001 10001101 00110010 11101100 
01100100 01101011 00101111 10100010 
01000100 01001100 11010100 10001100 
10111001 11010011 10110110 00100101 

10110111 00001110 11001001 11110000 
00100110 11000111 01011011 01101111 
10110100 10010111 11100011 11110010 
01111011 11010111 00000111 01010001 


01010000 11011000 10000011 01010010 
11100000 11100000 00110000 10011001 
01100110 10100110 10110011 00100000 
11101101 01111101 01110110 11110101 

00111101 01001000 00100010 10011011 
11010010 11111001 01110101 01101001 
00011010 01100001 11010101 11110001 
00111110 01110101 11000111 00010010 

01100000 10001000 01111101 01000110 
00000001 11011001 01110111 11101011 
10000010 11011000 10011111 00011101 
11100111 10101111 10100001 10100010 

11100110 10001010 11010011 01110111 
11000110 01010111 00101000 01110111 
01101110 01011110 10010010 11011010 
11001011 01011011 10100100 10001111 

01101011 01001100 10101110 01000011 
00001100 01110000 00001111 10000110 
00101001 00100011 11111110 10011011 
01001110 11101101 00101001 00000111 

01001101 01000111 11101000 00100010 
11110111 00010000 00100101 10011110 
10000001 01110011 00010101 10001101 
10100001 11011110 01011111 10001100 

10100001 10001101 00110010 11101100 
01100100 01101011 00101111 10100010 
01000100 01001100 11010100 10001100 
10111001 11010011 10110110 00100101 

10110111 00001110 11001001 11110000 
00100110 11000111 01011011 01101111 
10110100 10010111 11100011 11110010 
01111011 11010111 00000111 01010001 


01010000 11011000 10000011 01010010 
11100000 11100000 00110000 10011001 
01100110 10100110 10110011 00100000 
11101101 01111101 01110110 11110101 

00111101 01001000 00100010 10011011 
11010010 11111001 01110101 01101001 
00011010 01100001 11010101 11110001 
00111110 01110101 11000111 00010010 

01100000 10001000 01111101 01000110 
00000001 11011001 01110111 11101011 
10000010 11011000 10011111 00011101 
11100111 10101111 10100001 10100010 

11100110 10001010 11010011 01110111 
11000110 01010111 00101000 01110111 
01101110 01011110 10010010 11011010 
11001011 01011011 10100100 10001111 

01101011 01001100 10101110 01000011 
00001100 01110000 00001111 10000110 
00101001 00100011 11111110 10011011 
01001110 11101101 00101001 00000111 

01001101 01000111 11101000 00100010 
11110111 00010000 00100101 10011110 
10000001 01110011 00010101 10001101 
10100001 11011110 01011111 10001100 

10100001 10001101 00110010 11101100 
01100100 01101011 00101111 10100010 
01000100 01001100 11010100 10001100 
10111001 11010011 10110110 00100101 

10110111 00001110 11001001 11110000 
00100110 11000111 01011011 01101111 
10110100 10010111 11100011 11110010 
01111011 11010111 00000111 01010001 



01010000 11011000 10000011 01010010 
11100000 11100000 00110000 10011001 
01100110 10100110 10110011 00100000 
11101101 01111101 01110110 11110101 

00111101 01001000 00100010 10011011 
11010010 11111001 01110101 01101001 
00011010 01100001 11010101 11110001 
00111110 01110101 11000111 00010010 

01100000 10001000 01111101 01000110 
00000001 11011001 01110111 11101011 
10000010 11011000 10011111 00011101 
11100111 10101111 10100001 10100010 

11100110 10001010 11010011 01110111 
11000110 01010111 00101000 01110111 
01101110 01011110 10010010 11011010 
11001011 01011011 10100100 10001111 

01101011 01001100 10101110 01000011 
00001100 01110000 00001111 10000110 
00101001 00100011 11111110 10011011 
01001110 11101101 00101001 00000111 

01001101 01000111 11101000 00100010 
11110111 00010000 00100101 10011110 
10000001 01110011 00010101 10001101 
10100001 11011110 01011111 10001100 

10100001 10001101 00110010 11101100 
01100100 01101011 00101111 10100010 
01000100 01001100 11010100 10001100 
10111001 11010011 10110110 00100101 

10110111 00001110 11001001 11110000 
00100110 11000111 01011011 01101111 
10110100 10010111 11100011 11110010 
01111011 11010111 00000111 01010001 


01010000 11011000 10000011 01010010 
11100000 11100000 00110000 10011001 
01100110 10100110 10110011 00100000 
11101101 01111101 01110110 11110101 

00111101 01001000 00100010 10011011 
11010010 11111001 01110101 01101001 
00011010 01100001 11010101 11110001 
00111110 01110101 11000111 00010010 

01100000 10001000 01111101 01000110 
00000001 11011001 01110111 11101011 
10000010 11011000 10011111 00011101 
11100111 10101111 10100001 10100010 

11100110 10001010 11010011 01110111 
11000110 01010111 00101000 01110111 
01101110 01011110 10010010 11011010 
11001011 01011011 10100100 10001111 

01101011 01001100 10101110 01000011 
00001100 01110000 00001111 10000110 
00101001 00100011 11111110 10011011 
01001110 11101101 00101001 00000111 

01001101 01000111 11101000 00100010 
11110111 00010000 00100101 10011110 
10000001 01110011 00010101 10001101 
10100001 11011110 01011111 10001100 

10100001 10001101 00110010 11101100 
01100100 01101011 00101111 10100010 
01000100 01001100 11010100 10001100 
10111001 11010011 10110110 00100101 

10110111 00001110 11001001 11110000 
00100110 11000111 01011011 01101111 
10110100 10010111 11100011 11110010 
01111011 11010111 00000111 01010001 


01010000 11011000 10000011 01010010 
11100000 11100000 00110000 10011001 
01100110 10100110 10110011 00100000 
11101101 01111101 01110110 11110101 

00111101 01001000 00100010 10011011 
11010010 11111001 01110101 01101001 
00011010 01100001 11010101 11110001 
00111110 01110101 11000111 00010010 

01100000 10001000 01111101 01000110 
00000001 11011001 01110111 11101011 
10000010 11011000 10011111 00011101 
11100111 10101111 10100001 10100010 

11100110 10001010 11010011 01110111 
11000110 01010111 00101000 01110111 
01101110 01011110 10010010 11011010 
11001011 01011011 10100100 10001111 

01101011 01001100 10101110 01000011 
00001100 01110000 00001111 10000110 
00101001 00100011 11111110 10011011 
01001110 11101101 00101001 00000111 

01001101 01000111 11101000 00100010 
11110111 00010000 00100101 10011110 
10000001 01110011 00010101 10001101 
10100001 11011110 01011111 10001100 

10100001 10001101 00110010 11101100 
01100100 01101011 00101111 10100010 
01000100 01001100 11010100 10001100 
10111001 11010011 10110110 00100101 

10110111 00001110 11001001 11110000 
00100110 11000111 01011011 01101111 
10110100 10010111 11100011 11110010 
01111011 11010111 00000111 01010001 


01010000 11011000 10000011 01010010 
11100000 11100000 00110000 10011001 
01100110 10100110 10110011 00100000 
11101101 01111101 01110110 11110101 

00111101 01001000 00100010 10011011 
11010010 11111001 01110101 01101001 
00011010 01100001 11010101 11110001 
00111110 01110101 11000111 00010010 

01100000 10001000 01111101 01000110 
00000001 11011001 01110111 11101011 
10000010 11011000 10011111 00011101 
11100111 10101111 10100001 10100010 

11100110 10001010 11010011 01110111 
11000110 01010111 00101000 01110111 
01101110 01011110 10010010 11011010 
11001011 01011011 10100100 10001111 

01101011 01001100 10101110 01000011 
00001100 01110000 00001111 10000110 
00101001 00100011 11111110 10011011 
01001110 11101101 00101001 00000111 

01001101 01000111 11101000 00100010 
11110111 00010000 00100101 10011110 
10000001 01110011 00010101 10001101 
10100001 11011110 01011111 10001100 

10100001 10001101 00110010 11101100 
01100100 01101011 00101111 10100010 
01000100 01001100 11010100 10001100 
10111001 11010011 10110110 00100101 

10110111 00001110 11001001 11110000 
00100110 11000111 01011011 01101111 
10110100 10010111 11100011 11110010 
01111011 11010111 00000111 01010001 



01010000 11011000 10000011 01010010 
11100000 11100000 00110000 10011001 
01100110 10100110 10110011 00100000 
11101101 01111101 01110110 11110101 

00111101 01001000 00100010 10011011 
11010010 11111001 01110101 01101001 
00011010 01100001 11010101 11110001 
00111110 01110101 11000111 00010010 

01100000 10001000 01111101 01000110 
00000001 11011001 01110111 11101011 
10000010 11011000 10011111 00011101 
11100111 10101111 10100001 10100010 

11100110 10001010 11010011 01110111 
11000110 01010111 00101000 01110111 
01101110 01011110 10010010 11011010 
11001011 01011011 10100100 10001111 

01101011 01001100 10101110 01000011 
00001100 01110000 00001111 10000110 
00101001 00100011 11111110 10011011 
01001110 11101101 00101001 00000111 

01001101 01000111 11101000 00100010 
11110111 00010000 00100101 10011110 
10000001 01110011 00010101 10001101 
10100001 11011110 01011111 10001100 

10100001 10001101 00110010 11101100 
01100100 01101011 00101111 10100010 
01000100 01001100 11010100 10001100 
10111001 11010011 10110110 00100101 

10110111 00001110 11001001 11110000 
00100110 11000111 01011011 01101111 
10110100 10010111 11100011 11110010 
01111011 11010111 00000111 01010001 


01010000 11011000 10000011 01010010 
11100000 11100000 00110000 10011001 
01100110 10100110 10110011 00100000 
11101101 01111101 01110110 11110101 

00111101 01001000 00100010 10011011 
11010010 11111001 01110101 01101001 
00011010 01100001 11010101 11110001 
00111110 01110101 11000111 00010010 

01100000 10001000 01111101 01000110 
00000001 11011001 01110111 11101011 
10000010 11011000 10011111 00011101 
11100111 10101111 10100001 10100010 

11100110 10001010 11010011 01110111 
11000110 01010111 00101000 01110111 
01101110 01011110 10010010 11011010 
11001011 01011011 10100100 10001111 

01101011 01001100 10101110 01000011 
00001100 01110000 00001111 10000110 
00101001 00100011 11111110 10011011 
01001110 11101101 00101001 00000111 

01001101 01000111 11101000 00100010 
11110111 00010000 00100101 10011110 
10000001 01110011 00010101 10001101 
10100001 11011110 01011111 10001100 

10100001 10001101 00110010 11101100 
01100100 01101011 00101111 10100010 
01000100 01001100 11010100 10001100 
10111001 11010011 10110110 00100101 

10110111 00001110 11001001 11110000 
00100110 11000111 01011011 01101111 
10110100 10010111 11100011 11110010 
01111011 11010111 00000111 01010001 


01010000 11011000 10000011 01010010 
11100000 11100000 00110000 10011001 
01100110 10100110 10110011 00100000 
11101101 01111101 01110110 11110101 

00111101 01001000 00100010 10011011 
11010010 11111001 01110101 01101001 
00011010 01100001 11010101 11110001 
00111110 01110101 11000111 00010010 

01100000 10001000 01111101 01000110 
00000001 11011001 01110111 11101011 
10000010 11011000 10011111 00011101 
11100111 10101111 10100001 10100010 

11100110 10001010 11010011 01110111 
11000110 01010111 00101000 01110111 
01101110 01011110 10010010 11011010 
11001011 01011011 10100100 10001111 

01101011 01001100 10101110 01000011 
00001100 01110000 00001111 10000110 
00101001 00100011 11111110 10011011 
01001110 11101101 00101001 00000111 

01001101 01000111 11101000 00100010 
11110111 00010000 00100101 10011110 
10000001 01110011 00010101 10001101 
10100001 11011110 01011111 10001100 

10100001 10001101 00110010 11101100 
01100100 01101011 00101111 10100010 
01000100 01001100 11010100 10001100 
10111001 11010011 10110110 00100101 

10110111 00001110 11001001 11110000 
00100110 11000111 01011011 01101111 
10110100 10010111 11100011 11110010 
01111011 11010111 00000111 01010001 


01010000 11011000 10000011 01010010 
11100000 11100000 00110000 10011001 
01100110 10100110 10110011 00100000 
11101101 01111101 01110110 11110101 

00111101 01001000 00100010 10011011 
11010010 11111001 01110101 01101001 
00011010 01100001 11010101 11110001 
00111110 01110101 11000111 00010010 

01100000 10001000 01111101 01000110 
00000001 11011001 01110111 11101011 
10000010 11011000 10011111 00011101 
11100111 10101111 10100001 10100010 

11100110 10001010 11010011 01110111 
11000110 01010111 00101000 01110111 
01101110 01011110 10010010 11011010 
11001011 01011011 10100100 10001111 

01101011 01001100 10101110 01000011 
00001100 01110000 00001111 10000110 
00101001 00100011 11111110 10011011 
01001110 11101101 00101001 00000111 

01001101 01000111 11101000 00100010 
11110111 00010000 00100101 10011110 
10000001 01110011 00010101 10001101 
10100001 11011110 01011111 10001100 

10100001 10001101 00110010 11101100 
01100100 01101011 00101111 10100010 
01000100 01001100 11010100 10001100 
10111001 11010011 10110110 00100101 

10110111 00001110 11001001 11110000 
00100110 11000111 01011011 01101111 
10110100 10010111 11100011 11110010 
01111011 11010111 00000111 01010001 



01010000 11011000 10000011 01010010 
11100000 11100000 00110000 10011001 
01100110 10100110 10110011 00100000 
11101101 01111101 01110110 11110101 

00111101 01001000 00100010 10011011 
11010010 11111001 01110101 01101001 
00011010 01100001 11010101 11110001 
00111110 01110101 11000111 00010010 

01100000 10001000 01111101 01000110 
00000001 11011001 01110111 11101011 
10000010 11011000 10011111 00011101 
11100111 10101111 10100001 10100010 

11100110 10001010 11010011 01110111 
11000110 01010111 00101000 01110111 
01101110 01011110 10010010 11011010 
11001011 01011011 10100100 10001111 

01101011 01001100 10101110 01000011 
00001100 01110000 00001111 10000110 
00101001 00100011 11111110 10011011 
01001110 11101101 00101001 00000111 

01001101 01000111 11101000 00100010 
11110111 00010000 00100101 10011110 
10000001 01110011 00010101 10001101 
10100001 11011110 01011111 10001100 

10100001 10001101 00110010 11101100 
01100100 01101011 00101111 10100010 
01000100 01001100 11010100 10001100 
10111001 11010011 10110110 00100101 

10110111 00001110 11001001 11110000 
00100110 11000111 01011011 01101111 
10110100 10010111 11100011 11110010 
01111011 11010111 00000111 01010001 


01010000 11011000 10000011 01010010 
11100000 11100000 00110000 10011001 
01100110 10100110 10110011 00100000 
11101101 01111101 01110110 11110101 

00111101 01001000 00100010 10011011 
11010010 11111001 01110101 01101001 
00011010 01100001 11010101 11110001 
00111110 01110101 11000111 00010010 

01100000 10001000 01111101 01000110 
00000001 11011001 01110111 11101011 
10000010 11011000 10011111 00011101 
11100111 10101111 10100001 10100010 

11100110 10001010 11010011 01110111 
11000110 01010111 00101000 01110111 
01101110 01011110 10010010 11011010 
11001011 01011011 10100100 10001111 

01101011 01001100 10101110 01000011 
00001100 01110000 00001111 10000110 
00101001 00100011 11111110 10011011 
01001110 11101101 00101001 00000111 

01001101 01000111 11101000 00100010 
11110111 00010000 00100101 10011110 
10000001 01110011 00010101 10001101 
10100001 11011110 01011111 10001100 

10100001 10001101 00110010 11101100 
01100100 01101011 00101111 10100010 
01000100 01001100 11010100 10001100 
10111001 11010011 10110110 00100101 

10110111 00001110 11001001 11110000 
00100110 11000111 01011011 01101111 
10110100 10010111 11100011 11110010 
01111011 11010111 00000111 01010001 


01010000 11011000 10000011 01010010 
11100000 11100000 00110000 10011001 
01100110 10100110 10110011 00100000 
11101101 01111101 01110110 11110101 

00111101 01001000 00100010 10011011 
11010010 11111001 01110101 01101001 
00011010 01100001 11010101 11110001 
00111110 01110101 11000111 00010010 

01100000 10001000 01111101 01000110 
00000001 11011001 01110111 11101011 
10000010 11011000 10011111 00011101 
11100111 10101111 10100001 10100010 

11100110 10001010 11010011 01110111 
11000110 01010111 00101000 01110111 
01101110 01011110 10010010 11011010 
11001011 01011011 10100100 10001111 

01101011 01001100 10101110 01000011 
00001100 01110000 00001111 10000110 
00101001 00100011 11111110 10011011 
01001110 11101101 00101001 00000111 

01001101 01000111 11101000 00100010 
11110111 00010000 00100101 10011110 
10000001 01110011 00010101 10001101 
10100001 11011110 01011111 10001100 

10100001 10001101 00110010 11101100 
01100100 01101011 00101111 10100010 
01000100 01001100 11010100 10001100 
10111001 11010011 10110110 00100101 

10110111 00001110 11001001 11110000 
00100110 11000111 01011011 01101111 
10110100 10010111 11100011 11110010 
01111011 11010111 00000111 01010001 


01010000 11011000 10000011 01010010 
11100000 11100000 00110000 10011001 
01100110 10100110 10110011 00100000 
11101101 01111101 01110110 11110101 

00111101 01001000 00100010 10011011 
11010010 11111001 01110101 01101001 
00011010 01100001 11010101 11110001 
00111110 01110101 11000111 00010010 

01100000 10001000 01111101 01000110 
00000001 11011001 01110111 11101011 
10000010 11011000 10011111 00011101 
11100111 10101111 10100001 10100010 

11100110 10001010 11010011 01110111 
11000110 01010111 00101000 01110111 
01101110 01011110 10010010 11011010 
11001011 01011011 10100100 10001111 

01101011 01001100 10101110 01000011 
00001100 01110000 00001111 10000110 
00101001 00100011 11111110 10011011 
01001110 11101101 00101001 00000111 

01001101 01000111 11101000 00100010 
11110111 00010000 00100101 10011110 
10000001 01110011 00010101 10001101 
10100001 11011110 01011111 10001100 

10100001 10001101 00110010 11101100 
01100100 01101011 00101111 10100010 
01000100 01001100 11010100 10001100 
10111001 11010011 10110110 00100101 

10110111 00001110 11001001 11110000 
00100110 11000111 01011011 01101111 
10110100 10010111 11100011 11110010 
01111011 11010111 00000111 01010001 



01010000 11011000 10000011 01010010 
11100000 11100000 00110000 10011001 
01100110 10100110 10110011 00100000 
11101101 01111101 01110110 11110101 

00111101 01001000 00100010 10011011 
11010010 11111001 01110101 01101001 
00011010 01100001 11010101 11110001 
00111110 01110101 11000111 00010010 

01100000 10001000 01111101 01000110 
00000001 11011001 01110111 11101011 
10000010 11011000 10011111 00011101 
11100111 10101111 10100001 10100010 

11100110 10001010 11010011 01110111 
11000110 01010111 00101000 01110111 
01101110 01011110 10010010 11011010 
11001011 01011011 10100100 10001111 

01101011 01001100 10101110 01000011 
00001100 01110000 00001111 10000110 
00101001 00100011 11111110 10011011 
01001110 11101101 00101001 00000111 

01001101 01000111 11101000 00100010 
11110111 00010000 00100101 10011110 
10000001 01110011 00010101 10001101 
10100001 11011110 01011111 10001100 

10100001 10001101 00110010 11101100 
01100100 01101011 00101111 10100010 
01000100 01001100 11010100 10001100 
10111001 11010011 10110110 00100101 

10110111 00001110 11001001 11110000 
00100110 11000111 01011011 01101111 
10110100 10010111 11100011 11110010 
01111011 11010111 00000111 01010001 


01010000 11011000 10000011 01010010 
11100000 11100000 00110000 10011001 
01100110 10100110 10110011 00100000 
11101101 01111101 01110110 11110101 

00111101 01001000 00100010 10011011 
11010010 11111001 01110101 01101001 
00011010 01100001 11010101 11110001 
00111110 01110101 11000111 00010010 

01100000 10001000 01111101 01000110 
00000001 11011001 01110111 11101011 
10000010 11011000 10011111 00011101 
11100111 10101111 10100001 10100010 

11100110 10001010 11010011 01110111 
11000110 01010111 00101000 01110111 
01101110 01011110 10010010 11011010 
11001011 01011011 10100100 10001111 

01101011 01001100 10101110 01000011 
00001100 01110000 00001111 10000110 
00101001 00100011 11111110 10011011 
01001110 11101101 00101001 00000111 

01001101 01000111 11101000 00100010 
11110111 00010000 00100101 10011110 
10000001 01110011 00010101 10001101 
10100001 11011110 01011111 10001100 

10100001 10001101 00110010 11101100 
01100100 01101011 00101111 10100010 
01000100 01001100 11010100 10001100 
10111001 11010011 10110110 00100101 

10110111 00001110 11001001 11110000 
00100110 11000111 01011011 01101111 
10110100 10010111 11100011 11110010 
01111011 11010111 00000111 01010001 


01010000 11011000 10000011 01010010 
11100000 11100000 00110000 10011001 
01100110 10100110 10110011 00100000 
11101101 01111101 01110110 11110101 

00111101 01001000 00100010 10011011 
11010010 11111001 01110101 01101001 
00011010 01100001 11010101 11110001 
00111110 01110101 11000111 00010010 

01100000 10001000 01111101 01000110 
00000001 11011001 01110111 11101011 
10000010 11011000 10011111 00011101 
11100111 10101111 10100001 10100010 

11100110 10001010 11010011 01110111 
11000110 01010111 00101000 01110111 
01101110 01011110 10010010 11011010 
11001011 01011011 10100100 10001111 

01101011 01001100 10101110 01000011 
00001100 01110000 00001111 10000110 
00101001 00100011 11111110 10011011 
01001110 11101101 00101001 00000111 

01001101 01000111 11101000 00100010 
11110111 00010000 00100101 10011110 
10000001 01110011 00010101 10001101 
10100001 11011110 01011111 10001100 

10100001 10001101 00110010 11101100 
01100100 01101011 00101111 10100010 
01000100 01001100 11010100 10001100 
10111001 11010011 10110110 00100101 

10110111 00001110 11001001 11110000 
00100110 11000111 01011011 01101111 
10110100 10010111 11100011 11110010 
01111011 11010111 00000111 01010001 


01010000 11011000 10000011 01010010 
11100000 11100000 00110000 10011001 
01100110 10100110 10110011 00100000 
11101101 01111101 01110110 11110101 

00111101 01001000 00100010 10011011 
11010010 11111001 01110101 01101001 
00011010 01100001 11010101 11110001 
00111110 01110101 11000111 00010010 

01100000 10001000 01111101 01000110 
00000001 11011001 01110111 11101011 
10000010 11011000 10011111 00011101 
11100111 10101111 10100001 10100010 

11100110 10001010 11010011 01110111 
11000110 01010111 00101000 01110111 
01101110 01011110 10010010 11011010 
11001011 01011011 10100100 10001111 

01101011 01001100 10101110 01000011 
00001100 01110000 00001111 10000110 
00101001 00100011 11111110 10011011 
01001110 11101101 00101001 00000111 

01001101 01000111 11101000 00100010 
11110111 00010000 00100101 10011110 
10000001 01110011 00010101 10001101 
10100001 11011110 01011111 10001100 

10100001 10001101 00110010 11101100 
01100100 01101011 00101111 10100010 
01000100 01001100 11010100 10001100 
10111001 11010011 10110110 00100101 

10110111 00001110 11001001 11110000 
00100110 11000111 01011011 01101111 
10110100 10010111 11100011 11110010 
01111011 11010111 00000111 01010001 



01010000 11011000 10000011 01010010 
11100000 11100000 00110000 10011001 
01100110 10100110 10110011 00100000 
11101101 01111101 01110110 11110101 

00111101 01001000 00100010 10011011 
11010010 11111001 01110101 01101001 
00011010 01100001 11010101 11110001 
00111110 01110101 11000111 00010010 

01100000 10001000 01111101 01000110 
00000001 11011001 01110111 11101011 
10000010 11011000 10011111 00011101 
11100111 10101111 10100001 10100010 

11100110 10001010 11010011 01110111 
11000110 01010111 00101000 01110111 
01101110 01011110 10010010 11011010 
11001011 01011011 10100100 10001111 

01101011 01001100 10101110 01000011 
00001100 01110000 00001111 10000110 
00101001 00100011 11111110 10011011 
01001110 11101101 00101001 00000111 

01001101 01000111 11101000 00100010 
11110111 00010000 00100101 10011110 
10000001 01110011 00010101 10001101 
10100001 11011110 01011111 10001100 

10100001 10001101 00110010 11101100 
01100100 01101011 00101111 10100010 
01000100 01001100 11010100 10001100 
10111001 11010011 10110110 00100101 

10110111 00001110 11001001 11110000 
00100110 11000111 01011011 01101111 
10110100 10010111 11100011 11110010 
01111011 11010111 00000111 01010001 


01010000 11011000 10000011 01010010 
11100000 11100000 00110000 10011001 
01100110 10100110 10110011 00100000 
11101101 01111101 01110110 11110101 

00111101 01001000 00100010 10011011 
11010010 11111001 01110101 01101001 
00011010 01100001 11010101 11110001 
00111110 01110101 11000111 00010010 

01100000 10001000 01111101 01000110 
00000001 11011001 01110111 11101011 
10000010 11011000 10011111 00011101 
11100111 10101111 10100001 10100010 

11100110 10001010 11010011 01110111 
11000110 01010111 00101000 01110111 
01101110 01011110 10010010 11011010 
11001011 01011011 10100100 10001111 

01101011 01001100 10101110 01000011 
00001100 01110000 00001111 10000110 
00101001 00100011 11111110 10011011 
01001110 11101101 00101001 00000111 

01001101 01000111 11101000 00100010 
11110111 00010000 00100101 10011110 
10000001 01110011 00010101 10001101 
10100001 11011110 01011111 10001100 

10100001 10001101 00110010 11101100 
01100100 01101011 00101111 10100010 
01000100 01001100 11010100 10001100 
10111001 11010011 10110110 00100101 

10110111 00001110 11001001 11110000 
00100110 11000111 01011011 01101111 
10110100 10010111 11100011 11110010 
01111011 11010111 00000111 01010001 


01010000 11011000 10000011 01010010 
11100000 11100000 00110000 10011001 
01100110 10100110 10110011 00100000 
11101101 01111101 01110110 11110101 

00111101 01001000 00100010 10011011 
11010010 11111001 01110101 01101001 
00011010 01100001 11010101 11110001 
00111110 01110101 11000111 00010010 

01100000 10001000 01111101 01000110 
00000001 11011001 01110111 11101011 
10000010 11011000 10011111 00011101 
11100111 10101111 10100001 10100010 

11100110 10001010 11010011 01110111 
11000110 01010111 00101000 01110111 
01101110 01011110 10010010 11011010 
11001011 01011011 10100100 10001111 

01101011 01001100 10101110 01000011 
00001100 01110000 00001111 10000110 
00101001 00100011 11111110 10011011 
01001110 11101101 00101001 00000111 

01001101 01000111 11101000 00100010 
11110111 00010000 00100101 10011110 
10000001 01110011 00010101 10001101 
10100001 11011110 01011111 10001100 

10100001 10001101 00110010 11101100 
01100100 01101011 00101111 10100010 
01000100 01001100 11010100 10001100 
10111001 11010011 10110110 00100101 

10110111 00001110 11001001 11110000 
00100110 11000111 01011011 01101111 
10110100 10010111 11100011 11110010 
01111011 11010111 00000111 01010001 


01010000 11011000 10000011 01010010 
11100000 11100000 00110000 10011001 
01100110 10100110 10110011 00100000 
11101101 01111101 01110110 11110101 

00111101 01001000 00100010 10011011 
11010010 11111001 01110101 01101001 
00011010 01100001 11010101 11110001 
00111110 01110101 11000111 00010010 

01100000 10001000 01111101 01000110 
00000001 11011001 01110111 11101011 
10000010 11011000 10011111 00011101 
11100111 10101111 10100001 10100010 

11100110 10001010 11010011 01110111 
11000110 01010111 00101000 01110111 
01101110 01011110 10010010 11011010 
11001011 01011011 10100100 10001111 

01101011 01001100 10101110 01000011 
00001100 01110000 00001111 10000110 
00101001 00100011 11111110 10011011 
01001110 11101101 00101001 00000111 

01001101 01000111 11101000 00100010 
11110111 00010000 00100101 10011110 
10000001 01110011 00010101 10001101 
10100001 11011110 01011111 10001100 

10100001 10001101 00110010 11101100 
01100100 01101011 00101111 10100010 
01000100 01001100 11010100 10001100 
10111001 11010011 10110110 00100101 

10110111 00001110 11001001 11110000 
00100110 11000111 01011011 01101111 
10110100 10010111 11100011 11110010 
01111011 11010111 00000111 01010001 



01010000 11011000 10000011 01010010 
11100000 11100000 00110000 10011001 
01100110 10100110 10110011 00100000 
11101101 01111101 01110110 11110101 

00111101 01001000 00100010 10011011 
11010010 11111001 01110101 01101001 
00011010 01100001 11010101 11110001 
00111110 01110101 11000111 00010010 

01100000 10001000 01111101 01000110 
00000001 11011001 01110111 11101011 
10000010 11011000 10011111 00011101 
11100111 10101111 10100001 10100010 

11100110 10001010 11010011 01110111 
11000110 01010111 00101000 01110111 
01101110 01011110 10010010 11011010 
11001011 01011011 10100100 10001111 

01101011 01001100 10101110 01000011 
00001100 01110000 00001111 10000110 
00101001 00100011 11111110 10011011 
01001110 11101101 00101001 00000111 

01001101 01000111 11101000 00100010 
11110111 00010000 00100101 10011110 
10000001 01110011 00010101 10001101 
10100001 11011110 01011111 10001100 

10100001 10001101 00110010 11101100 
01100100 01101011 00101111 10100010 
01000100 01001100 11010100 10001100 
10111001 11010011 10110110 00100101 

10110111 00001110 11001001 11110000 
00100110 11000111 01011011 01101111 
10110100 10010111 11100011 11110010 
01111011 11010111 00000111 01010001 


01010000 11011000 10000011 01010010 
11100000 11100000 00110000 10011001 
01100110 10100110 10110011 00100000 
11101101 01111101 01110110 11110101 

00111101 01001000 00100010 10011011 
11010010 11111001 01110101 01101001 
00011010 01100001 11010101 11110001 
00111110 01110101 11000111 00010010 

01100000 10001000 01111101 01000110 
00000001 11011001 01110111 11101011 
10000010 11011000 10011111 00011101 
11100111 10101111 10100001 10100010 

11100110 10001010 11010011 01110111 
11000110 01010111 00101000 01110111 
01101110 01011110 10010010 11011010 
11001011 01011011 10100100 10001111 

01101011 01001100 10101110 01000011 
00001100 01110000 00001111 10000110 
00101001 00100011 11111110 10011011 
01001110 11101101 00101001 00000111 

01001101 01000111 11101000 00100010 
11110111 00010000 00100101 10011110 
10000001 01110011 00010101 10001101 
10100001 11011110 01011111 10001100 

10100001 10001101 00110010 11101100 
01100100 01101011 00101111 10100010 
01000100 01001100 11010100 10001100 
10111001 11010011 10110110 00100101 

10110111 00001110 11001001 11110000 
00100110 11000111 01011011 01101111 
10110100 10010111 11100011 11110010 
01111011 11010111 00000111 01010001 


01010000 11011000 10000011 01010010 
11100000 11100000 00110000 10011001 
01100110 10100110 10110011 00100000 
11101101 01111101 01110110 11110101 

00111101 01001000 00100010 10011011 
11010010 11111001 01110101 01101001 
00011010 01100001 11010101 11110001 
00111110 01110101 11000111 00010010 

01100000 10001000 01111101 01000110 
00000001 11011001 01110111 11101011 
10000010 11011000 10011111 00011101 
11100111 10101111 10100001 10100010 

11100110 10001010 11010011 01110111 
11000110 01010111 00101000 01110111 
01101110 01011110 10010010 11011010 
11001011 01011011 10100100 10001111 

01101011 01001100 10101110 01000011 
00001100 01110000 00001111 10000110 
00101001 00100011 11111110 10011011 
01001110 11101101 00101001 00000111 

01001101 01000111 11101000 00100010 
11110111 00010000 00100101 10011110 
10000001 01110011 00010101 10001101 
10100001 11011110 01011111 10001100 

10100001 10001101 00110010 11101100 
01100100 01101011 00101111 10100010 
01000100 01001100 11010100 10001100 
10111001 11010011 10110110 00100101 

10110111 00001110 11001001 11110000 
00100110 11000111 01011011 01101111 
10110100 10010111 11100011 11110010 
01111011 11010111 00000111 01010001 


01010000 11011000 10000011 01010010 
11100000 11100000 00110000 10011001 
01100110 10100110 10110011 00100000 
11101101 01111101 01110110 11110101 

00111101 01001000 00100010 10011011 
11010010 11111001 01110101 01101001 
00011010 01100001 11010101 11110001 
00111110 01110101 11000111 00010010 

01100000 10001000 01111101 01000110 
00000001 11011001 01110111 11101011 
10000010 11011000 10011111 00011101 
11100111 10101111 10100001 10100010 

11100110 10001010 11010011 01110111 
11000110 01010111 00101000 01110111 
01101110 01011110 10010010 11011010 
11001011 01011011 10100100 10001111 

01101011 01001100 10101110 01000011 
00001100 01110000 00001111 10000110 
00101001 00100011 11111110 10011011 
01001110 11101101 00101001 00000111 

01001101 01000111 11101000 00100010 
11110111 00010000 00100101 10011110 
10000001 01110011 00010101 10001101 
10100001 11011110 01011111 10001100 

10100001 10001101 00110010 11101100 
01100100 01101011 00101111 10100010 
01000100 01001100 11010100 10001100 
10111001 11010011 10110110 00100101 

10110111 00001110 11001001 11110000 
00100110 11000111 01011011 01101111 
10110100 10010111 11100011 11110010 
01111011 11010111 00000111 01010001 



01010000 11011000 10000011 01010010 
11100000 11100000 00110000 10011001 
01100110 10100110 10110011 00100000 
11101101 01111101 01110110 11110101 

00111101 01001000 00100010 10011011 
11010010 11111001 01110101 01101001 
00011010 01100001 11010101 11110001 
00111110 01110101 11000111 00010010 

01100000 10001000 01111101 01000110 
00000001 11011001 01110111 11101011 
10000010 11011000 10011111 00011101 
11100111 10101111 10100001 10100010 

11100110 10001010 11010011 01110111 
11000110 01010111 00101000 01110111 
01101110 01011110 10010010 11011010 
11001011 01011011 10100100 10001111 

01101011 01001100 10101110 01000011 
00001100 01110000 00001111 10000110 
00101001 00100011 11111110 10011011 
01001110 11101101 00101001 00000111 

01001101 01000111 11101000 00100010 
11110111 00010000 00100101 10011110 
10000001 01110011 00010101 10001101 
10100001 11011110 01011111 10001100 

10100001 10001101 00110010 11101100 
01100100 01101011 00101111 10100010 
01000100 01001100 11010100 10001100 
10111001 11010011 10110110 00100101 

10110111 00001110 11001001 11110000 
00100110 11000111 01011011 01101111 
10110100 10010111 11100011 11110010 
01111011 11010111 00000111 01010001 


01010000 11011000 10000011 01010010 
11100000 11100000 00110000 10011001 
01100110 10100110 10110011 00100000 
11101101 01111101 01110110 11110101 

00111101 01001000 00100010 10011011 
11010010 11111001 01110101 01101001 
00011010 01100001 11010101 11110001 
00111110 01110101 11000111 00010010 

01100000 10001000 01111101 01000110 
00000001 11011001 01110111 11101011 
10000010 11011000 10011111 00011101 
11100111 10101111 10100001 10100010 

11100110 10001010 11010011 01110111 
11000110 01010111 00101000 01110111 
01101110 01011110 10010010 11011010 
11001011 01011011 10100100 10001111 

01101011 01001100 10101110 01000011 
00001100 01110000 00001111 10000110 
00101001 00100011 11111110 10011011 
01001110 11101101 00101001 00000111 

01001101 01000111 11101000 00100010 
11110111 00010000 00100101 10011110 
10000001 01110011 00010101 10001101 
10100001 11011110 01011111 10001100 

10100001 10001101 00110010 11101100 
01100100 01101011 00101111 10100010 
01000100 01001100 11010100 10001100 
10111001 11010011 10110110 00100101 

10110111 00001110 11001001 11110000 
00100110 11000111 01011011 01101111 
10110100 10010111 11100011 11110010 
01111011 11010111 00000111 01010001 


01010000 11011000 10000011 01010010 
11100000 11100000 00110000 10011001 
01100110 10100110 10110011 00100000 
11101101 01111101 01110110 11110101 

00111101 01001000 00100010 10011011 
11010010 11111001 01110101 01101001 
00011010 01100001 11010101 11110001 
00111110 01110101 11000111 00010010 

01100000 10001000 01111101 01000110 
00000001 11011001 01110111 11101011 
10000010 11011000 10011111 00011101 
11100111 10101111 10100001 10100010 

11100110 10001010 11010011 01110111 
11000110 01010111 00101000 01110111 
01101110 01011110 10010010 11011010 
11001011 01011011 10100100 10001111 

01101011 01001100 10101110 01000011 
00001100 01110000 00001111 10000110 
00101001 00100011 11111110 10011011 
01001110 11101101 00101001 00000111 

01001101 01000111 11101000 00100010 
11110111 00010000 00100101 10011110 
10000001 01110011 00010101 10001101 
10100001 11011110 01011111 10001100 

10100001 10001101 00110010 11101100 
01100100 01101011 00101111 10100010 
01000100 01001100 11010100 10001100 
10111001 11010011 10110110 00100101 

10110111 00001110 11001001 11110000 
00100110 11000111 01011011 01101111 
10110100 10010111 11100011 11110010 
01111011 11010111 00000111 01010001 


01010000 11011000 10000011 01010010 
11100000 11100000 00110000 10011001 
01100110 10100110 10110011 00100000 
11101101 01111101 01110110 11110101 

00111101 01001000 00100010 10011011 
11010010 11111001 01110101 01101001 
00011010 01100001 11010101 11110001 
00111110 01110101 11000111 00010010 

01100000 10001000 01111101 01000110 
00000001 11011001 01110111 11101011 
10000010 11011000 10011111 00011101 
11100111 10101111 10100001 10100010 

11100110 10001010 11010011 01110111 
11000110 01010111 00101000 01110111 
01101110 01011110 10010010 11011010 
11001011 01011011 10100100 10001111 

01101011 01001100 10101110 01000011 
00001100 01110000 00001111 10000110 
00101001 00100011 11111110 10011011 
01001110 11101101 00101001 00000111 

01001101 01000111 11101000 00100010 
11110111 00010000 00100101 10011110 
10000001 01110011 00010101 10001101 
10100001 11011110 01011111 10001100 

10100001 10001101 00110010 11101100 
01100100 01101011 00101111 10100010 
01000100 01001100 11010100 10001100 
10111001 11010011 10110110 00100101 

10110111 00001110 11001001 11110000 
00100110 11000111 01011011 01101111 
10110100 10010111 11100011 11110010 
01111011 11010111 00000111 01010001 



01010000 11011000 10000011 01010010 
11100000 11100000 00110000 10011001 
01100110 10100110 10110011 00100000 
11101101 01111101 01110110 11110101 

00111101 01001000 00100010 10011011 
11010010 11111001 01110101 01101001 
00011010 01100001 11010101 11110001 
00111110 01110101 11000111 00010010 

01100000 10001000 01111101 01000110 
00000001 11011001 01110111 11101011 
10000010 11011000 10011111 00011101 
11100111 10101111 10100001 10100010 

11100110 10001010 11010011 01110111 
11000110 01010111 00101000 01110111 
01101110 01011110 10010010 11011010 
11001011 01011011 10100100 10001111 

01101011 01001100 10101110 01000011 
00001100 01110000 00001111 10000110 
00101001 00100011 11111110 10011011 
01001110 11101101 00101001 00000111 

01001101 01000111 11101000 00100010 
11110111 00010000 00100101 10011110 
10000001 01110011 00010101 10001101 
10100001 11011110 01011111 10001100 

10100001 10001101 00110010 11101100 
01100100 01101011 00101111 10100010 
01000100 01001100 11010100 10001100 
10111001 11010011 10110110 00100101 

10110111 00001110 11001001 11110000 
00100110 11000111 01011011 01101111 
10110100 10010111 11100011 11110010 
01111011 11010111 00000111 01010001 


01010000 11011000 10000011 01010010 
11100000 11100000 00110000 10011001 
01100110 10100110 10110011 00100000 
11101101 01111101 01110110 11110101 

00111101 01001000 00100010 10011011 
11010010 11111001 01110101 01101001 
00011010 01100001 11010101 11110001 
00111110 01110101 11000111 00010010 

01100000 10001000 01111101 01000110 
00000001 11011001 01110111 11101011 
10000010 11011000 10011111 00011101 
11100111 10101111 10100001 10100010 

11100110 10001010 11010011 01110111 
11000110 01010111 00101000 01110111 
01101110 01011110 10010010 11011010 
11001011 01011011 10100100 10001111 

01101011 01001100 10101110 01000011 
00001100 01110000 00001111 10000110 
00101001 00100011 11111110 10011011 
01001110 11101101 00101001 00000111 

01001101 01000111 11101000 00100010 
11110111 00010000 00100101 10011110 
10000001 01110011 00010101 10001101 
10100001 11011110 01011111 10001100 

10100001 10001101 00110010 11101100 
01100100 01101011 00101111 10100010 
01000100 01001100 11010100 10001100 
10111001 11010011 10110110 00100101 

10110111 00001110 11001001 11110000 
00100110 11000111 01011011 01101111 
10110100 10010111 11100011 11110010 
01111011 11010111 00000111 01010001 


01010000 11011000 10000011 01010010 
11100000 11100000 00110000 10011001 
01100110 10100110 10110011 00100000 
11101101 01111101 01110110 11110101 

00111101 01001000 00100010 10011011 
11010010 11111001 01110101 01101001 
00011010 01100001 11010101 11110001 
00111110 01110101 11000111 00010010 

01100000 10001000 01111101 01000110 
00000001 11011001 01110111 11101011 
10000010 11011000 10011111 00011101 
11100111 10101111 10100001 10100010 

11100110 10001010 11010011 01110111 
11000110 01010111 00101000 01110111 
01101110 01011110 10010010 11011010 
11001011 01011011 10100100 10001111 

01101011 01001100 10101110 01000011 
00001100 01110000 00001111 10000110 
00101001 00100011 11111110 10011011 
01001110 11101101 00101001 00000111 

01001101 01000111 11101000 00100010 
11110111 00010000 00100101 10011110 
10000001 01110011 00010101 10001101 
10100001 11011110 01011111 10001100 

10100001 10001101 00110010 11101100 
01100100 01101011 00101111 10100010 
01000100 01001100 11010100 10001100 
10111001 11010011 10110110 00100101 

10110111 00001110 11001001 11110000 
00100110 11000111 01011011 01101111 
10110100 10010111 11100011 11110010 
01111011 11010111 00000111 01010001 


01010000 11011000 10000011 01010010 
11100000 11100000 00110000 10011001 
01100110 10100110 10110011 00100000 
11101101 01111101 01110110 11110101 

00111101 01001000 00100010 10011011 
11010010 11111001 01110101 01101001 
00011010 01100001 11010101 11110001 
00111110 01110101 11000111 00010010 

01100000 10001000 01111101 01000110 
00000001 11011001 01110111 11101011 
10000010 11011000 10011111 00011101 
11100111 10101111 10100001 10100010 

11100110 10001010 11010011 01110111 
11000110 01010111 00101000 01110111 
01101110 01011110 10010010 11011010 
11001011 01011011 10100100 10001111 

01101011 01001100 10101110 01000011 
00001100 01110000 00001111 10000110 
00101001 00100011 11111110 10011011 
01001110 11101101 00101001 00000111 

01001101 01000111 11101000 00100010 
11110111 00010000 00100101 10011110 
10000001 01110011 00010101 10001101 
10100001 11011110 01011111 10001100 

10100001 10001101 00110010 11101100 
01100100 01101011 00101111 10100010 
01000100 01001100 11010100 10001100 
10111001 11010011 10110110 00100101 

10110111 00001110 11001001 11110000 
00100110 11000111 01011011 01101111 
10110100 10010111 11100011 11110010 
01111011 11010111 00000111 01010001 



01010000 11011000 10000011 01010010 
11100000 11100000 00110000 10011001 
01100110 10100110 10110011 00100000 
11101101 01111101 01110110 11110101 

00111101 01001000 00100010 10011011 
11010010 11111001 01110101 01101001 
00011010 01100001 11010101 11110001 
00111110 01110101 11000111 00010010 

01100000 10001000 01111101 01000110 
00000001 11011001 01110111 11101011 
10000010 11011000 10011111 00011101 
11100111 10101111 10100001 10100010 

11100110 10001010 11010011 01110111 
11000110 01010111 00101000 01110111 
01101110 01011110 10010010 11011010 
11001011 01011011 10100100 10001111 

01101011 01001100 10101110 01000011 
00001100 01110000 00001111 10000110 
00101001 00100011 11111110 10011011 
01001110 11101101 00101001 00000111 

01001101 01000111 11101000 00100010 
11110111 00010000 00100101 10011110 
10000001 01110011 00010101 10001101 
10100001 11011110 01011111 10001100 

10100001 10001101 00110010 11101100 
01100100 01101011 00101111 10100010 
01000100 01001100 11010100 10001100 
10111001 11010011 10110110 00100101 

10110111 00001110 11001001 11110000 
00100110 11000111 01011011 01101111 
10110100 10010111 11100011 11110010 
01111011 11010111 00000111 01010001 


01010000 11011000 10000011 01010010 
11100000 11100000 00110000 10011001 
01100110 10100110 10110011 00100000 
11101101 01111101 01110110 11110101 

00111101 01001000 00100010 10011011 
11010010 11111001 01110101 01101001 
00011010 01100001 11010101 11110001 
00111110 01110101 11000111 00010010 

01100000 10001000 01111101 01000110 
00000001 11011001 01110111 11101011 
10000010 11011000 10011111 00011101 
11100111 10101111 10100001 10100010 

11100110 10001010 11010011 01110111 
11000110 01010111 00101000 01110111 
01101110 01011110 10010010 11011010 
11001011 01011011 10100100 10001111 

01101011 01001100 10101110 01000011 
00001100 01110000 00001111 10000110 
00101001 00100011 11111110 10011011 
01001110 11101101 00101001 00000111 

01001101 01000111 11101000 00100010 
11110111 00010000 00100101 10011110 
10000001 01110011 00010101 10001101 
10100001 11011110 01011111 10001100 

10100001 10001101 00110010 11101100 
01100100 01101011 00101111 10100010 
01000100 01001100 11010100 10001100 
10111001 11010011 10110110 00100101 

10110111 00001110 11001001 11110000 
00100110 11000111 01011011 01101111 
10110100 10010111 11100011 11110010 
01111011 11010111 00000111 01010001 


01010000 11011000 10000011 01010010 
11100000 11100000 00110000 10011001 
01100110 10100110 10110011 00100000 
11101101 01111101 01110110 11110101 

00111101 01001000 00100010 10011011 
11010010 11111001 01110101 01101001 
00011010 01100001 11010101 11110001 
00111110 01110101 11000111 00010010 

01100000 10001000 01111101 01000110 
00000001 11011001 01110111 11101011 
10000010 11011000 10011111 00011101 
11100111 10101111 10100001 10100010 

11100110 10001010 11010011 01110111 
11000110 01010111 00101000 01110111 
01101110 01011110 10010010 11011010 
11001011 01011011 10100100 10001111 

01101011 01001100 10101110 01000011 
00001100 01110000 00001111 10000110 
00101001 00100011 11111110 10011011 
01001110 11101101 00101001 00000111 

01001101 01000111 11101000 00100010 
11110111 00010000 00100101 10011110 
10000001 01110011 00010101 10001101 
10100001 11011110 01011111 10001100 

10100001 10001101 00110010 11101100 
01100100 01101011 00101111 10100010 
01000100 01001100 11010100 10001100 
10111001 11010011 10110110 00100101 

10110111 00001110 11001001 11110000 
00100110 11000111 01011011 01101111 
10110100 10010111 11100011 11110010 
01111011 11010111 00000111 01010001 


01010000 11011000 10000011 01010010 
11100000 11100000 00110000 10011001 
01100110 10100110 10110011 00100000 
11101101 01111101 01110110 11110101 

00111101 01001000 00100010 10011011 
11010010 11111001 01110101 01101001 
00011010 01100001 11010101 11110001 
00111110 01110101 11000111 00010010 

01100000 10001000 01111101 01000110 
00000001 11011001 01110111 11101011 
10000010 11011000 10011111 00011101 
11100111 10101111 10100001 10100010 

11100110 10001010 11010011 01110111 
11000110 01010111 00101000 01110111 
01101110 01011110 10010010 11011010 
11001011 01011011 10100100 10001111 

01101011 01001100 10101110 01000011 
00001100 01110000 00001111 10000110 
00101001 00100011 11111110 10011011 
01001110 11101101 00101001 00000111 

01001101 01000111 11101000 00100010 
11110111 00010000 00100101 10011110 
10000001 01110011 00010101 10001101 
10100001 11011110 01011111 10001100 

10100001 10001101 00110010 11101100 
01100100 01101011 00101111 10100010 
01000100 01001100 11010100 10001100 
10111001 11010011 10110110 00100101 

10110111 00001110 11001001 11110000 
00100110 11000111 01011011 01101111 
10110100 10010111 11100011 11110010 
01111011 11010111 00000111 01010001 



01010000 11011000 10000011 01010010 
11100000 11100000 00110000 10011001 
01100110 10100110 10110011 00100000 
11101101 01111101 01110110 11110101 

00111101 01001000 00100010 10011011 
11010010 11111001 01110101 01101001 
00011010 01100001 11010101 11110001 
00111110 01110101 11000111 00010010 

01100000 10001000 01111101 01000110 
00000001 11011001 01110111 11101011 
10000010 11011000 10011111 00011101 
11100111 10101111 10100001 10100010 

11100110 10001010 11010011 01110111 
11000110 01010111 00101000 01110111 
01101110 01011110 10010010 11011010 
11001011 01011011 10100100 10001111 

01101011 01001100 10101110 01000011 
00001100 01110000 00001111 10000110 
00101001 00100011 11111110 10011011 
01001110 11101101 00101001 00000111 

01001101 01000111 11101000 00100010 
11110111 00010000 00100101 10011110 
10000001 01110011 00010101 10001101 
10100001 11011110 01011111 10001100 

10100001 10001101 00110010 11101100 
01100100 01101011 00101111 10100010 
01000100 01001100 11010100 10001100 
10111001 11010011 10110110 00100101 

10110111 00001110 11001001 11110000 
00100110 11000111 01011011 01101111 
10110100 10010111 11100011 11110010 
01111011 11010111 00000111 01010001 


01010000 11011000 10000011 01010010 
11100000 11100000 00110000 10011001 
01100110 10100110 10110011 00100000 
11101101 01111101 01110110 11110101 

00111101 01001000 00100010 10011011 
11010010 11111001 01110101 01101001 
00011010 01100001 11010101 11110001 
00111110 01110101 11000111 00010010 

01100000 10001000 01111101 01000110 
00000001 11011001 01110111 11101011 
10000010 11011000 10011111 00011101 
11100111 10101111 10100001 10100010 

11100110 10001010 11010011 01110111 
11000110 01010111 00101000 01110111 
01101110 01011110 10010010 11011010 
11001011 01011011 10100100 10001111 

01101011 01001100 10101110 01000011 
00001100 01110000 00001111 10000110 
00101001 00100011 11111110 10011011 
01001110 11101101 00101001 00000111 

01001101 01000111 11101000 00100010 
11110111 00010000 00100101 10011110 
10000001 01110011 00010101 10001101 
10100001 11011110 01011111 10001100 

10100001 10001101 00110010 11101100 
01100100 01101011 00101111 10100010 
01000100 01001100 11010100 10001100 
10111001 11010011 10110110 00100101 

10110111 00001110 11001001 11110000 
00100110 11000111 01011011 01101111 
10110100 10010111 11100011 11110010 
01111011 11010111 00000111 01010001 


01010000 11011000 10000011 01010010 
11100000 11100000 00110000 10011001 
01100110 10100110 10110011 00100000 
11101101 01111101 01110110 11110101 

00111101 01001000 00100010 10011011 
11010010 11111001 01110101 01101001 
00011010 01100001 11010101 11110001 
00111110 01110101 11000111 00010010 

01100000 10001000 01111101 01000110 
00000001 11011001 01110111 11101011 
10000010 11011000 10011111 00011101 
11100111 10101111 10100001 10100010 

11100110 10001010 11010011 01110111 
11000110 01010111 00101000 01110111 
01101110 01011110 10010010 11011010 
11001011 01011011 10100100 10001111 

01101011 01001100 10101110 01000011 
00001100 01110000 00001111 10000110 
00101001 00100011 11111110 10011011 
01001110 11101101 00101001 00000111 

01001101 01000111 11101000 00100010 
11110111 00010000 00100101 10011110 
10000001 01110011 00010101 10001101 
10100001 11011110 01011111 10001100 

10100001 10001101 00110010 11101100 
01100100 01101011 00101111 10100010 
01000100 01001100 11010100 10001100 
10111001 11010011 10110110 00100101 

10110111 00001110 11001001 11110000 
00100110 11000111 01011011 01101111 
10110100 10010111 11100011 11110010 
01111011 11010111 00000111 01010001 


01010000 11011000 10000011 01010010 
11100000 11100000 00110000 10011001 
01100110 10100110 10110011 00100000 
11101101 01111101 01110110 11110101 

00111101 01001000 00100010 10011011 
11010010 11111001 01110101 01101001 
00011010 01100001 11010101 11110001 
00111110 01110101 11000111 00010010 

01100000 10001000 01111101 01000110 
00000001 11011001 01110111 11101011 
10000010 11011000 10011111 00011101 
11100111 10101111 10100001 10100010 

11100110 10001010 11010011 01110111 
11000110 01010111 00101000 01110111 
01101110 01011110 10010010 11011010 
11001011 01011011 10100100 10001111 

01101011 01001100 10101110 01000011 
00001100 01110000 00001111 10000110 
00101001 00100011 11111110 10011011 
01001110 11101101 00101001 00000111 

01001101 01000111 11101000 00100010 
11110111 00010000 00100101 10011110 
10000001 01110011 00010101 10001101 
10100001 11011110 01011111 10001100 

10100001 10001101 00110010 11101100 
01100100 01101011 00101111 10100010 
01000100 01001100 11010100 10001100 
10111001 11010011 10110110 00100101 

10110111 00001110 11001001 11110000 
00100110 11000111 01011011 01101111 
10110100 10010111 11100011 11110010 
01111011 11010111 00000111 01010001 



01010000 11011000 10000011 01010010 
11100000 11100000 00110000 10011001 
01100110 10100110 10110011 00100000 
11101101 01111101 01110110 11110101 

00111101 01001000 00100010 10011011 
11010010 11111001 01110101 01101001 
00011010 01100001 11010101 11110001 
00111110 01110101 11000111 00010010 

01100000 10001000 01111101 01000110 
00000001 11011001 01110111 11101011 
10000010 11011000 10011111 00011101 
11100111 10101111 10100001 10100010 

11100110 10001010 11010011 01110111 
11000110 01010111 00101000 01110111 
01101110 01011110 10010010 11011010 
11001011 01011011 10100100 10001111 

01101011 01001100 10101110 01000011 
00001100 01110000 00001111 10000110 
00101001 00100011 11111110 10011011 
01001110 11101101 00101001 00000111 

01001101 01000111 11101000 00100010 
11110111 00010000 00100101 10011110 
10000001 01110011 00010101 10001101 
10100001 11011110 01011111 10001100 

10100001 10001101 00110010 11101100 
01100100 01101011 00101111 10100010 
01000100 01001100 11010100 10001100 
10111001 11010011 10110110 00100101 

10110111 00001110 11001001 11110000 
00100110 11000111 01011011 01101111 
10110100 10010111 11100011 11110010 
01111011 11010111 00000111 01010001 


01010000 11011000 10000011 01010010 
11100000 11100000 00110000 10011001 
01100110 10100110 10110011 00100000 
11101101 01111101 01110110 11110101 

00111101 01001000 00100010 10011011 
11010010 11111001 01110101 01101001 
00011010 01100001 11010101 11110001 
00111110 01110101 11000111 00010010 

01100000 10001000 01111101 01000110 
00000001 11011001 01110111 11101011 
10000010 11011000 10011111 00011101 
11100111 10101111 10100001 10100010 

11100110 10001010 11010011 01110111 
11000110 01010111 00101000 01110111 
01101110 01011110 10010010 11011010 
11001011 01011011 10100100 10001111 

01101011 01001100 10101110 01000011 
00001100 01110000 00001111 10000110 
00101001 00100011 11111110 10011011 
01001110 11101101 00101001 00000111 

01001101 01000111 11101000 00100010 
11110111 00010000 00100101 10011110 
10000001 01110011 00010101 10001101 
10100001 11011110 01011111 10001100 

10100001 10001101 00110010 11101100 
01100100 01101011 00101111 10100010 
01000100 01001100 11010100 10001100 
10111001 11010011 10110110 00100101 

10110111 00001110 11001001 11110000 
00100110 11000111 01011011 01101111 
10110100 10010111 11100011 11110010 
01111011 11010111 00000111 01010001 


01010000 11011000 10000011 01010010 
11100000 11100000 00110000 10011001 
01100110 10100110 10110011 00100000 
11101101 01111101 01110110 11110101 

00111101 01001000 00100010 10011011 
11010010 11111001 01110101 01101001 
00011010 01100001 11010101 11110001 
00111110 01110101 11000111 00010010 

01100000 10001000 01111101 01000110 
00000001 11011001 01110111 11101011 
10000010 11011000 10011111 00011101 
11100111 10101111 10100001 10100010 

11100110 10001010 11010011 01110111 
11000110 01010111 00101000 01110111 
01101110 01011110 10010010 11011010 
11001011 01011011 10100100 10001111 

01101011 01001100 10101110 01000011 
00001100 01110000 00001111 10000110 
00101001 00100011 11111110 10011011 
01001110 11101101 00101001 00000111 

01001101 01000111 11101000 00100010 
11110111 00010000 00100101 10011110 
10000001 01110011 00010101 10001101 
10100001 11011110 01011111 10001100 

10100001 10001101 00110010 11101100 
01100100 01101011 00101111 10100010 
01000100 01001100 11010100 10001100 
10111001 11010011 10110110 00100101 

10110111 00001110 11001001 11110000 
00100110 11000111 01011011 01101111 
10110100 10010111 11100011 11110010 
01111011 11010111 00000111 01010001 


01010000 11011000 10000011 01010010 
11100000 11100000 00110000 10011001 
01100110 10100110 10110011 00100000 
11101101 01111101 01110110 11110101 

00111101 01001000 00100010 10011011 
11010010 11111001 01110101 01101001 
00011010 01100001 11010101 11110001 
00111110 01110101 11000111 00010010 

01100000 10001000 01111101 01000110 
00000001 11011001 01110111 11101011 
10000010 11011000 10011111 00011101 
11100111 10101111 10100001 10100010 

11100110 10001010 11010011 01110111 
11000110 01010111 00101000 01110111 
01101110 01011110 10010010 11011010 
11001011 01011011 10100100 10001111 

01101011 01001100 10101110 01000011 
00001100 01110000 00001111 10000110 
00101001 00100011 11111110 10011011 
01001110 11101101 00101001 00000111 

01001101 01000111 11101000 00100010 
11110111 00010000 00100101 10011110 
10000001 01110011 00010101 10001101 
10100001 11011110 01011111 10001100 

10100001 10001101 00110010 11101100 
01100100 01101011 00101111 10100010 
01000100 01001100 11010100 10001100 
10111001 11010011 10110110 00100101 

10110111 00001110 11001001 11110000 
00100110 11000111 01011011 01101111 
10110100 10010111 11100011 11110010 
01111011 11010111 00000111 01010001 




00100010 01011001 01101111 10001100 
10111101 01011110 10100010 11101011 
10001000 11101100 11100110 01110110 
10100000 01111000 00111011 10001100 

00000010 00010111 01010111 11001100 
11000111 11001110 11110001 10101110 
10110111 11101101 00111100 01110001 
11110000 11010000 00000111 00011000 

11101111 01101000 11011101 10111111 
10001111 01101110 11010010 11111011 
10010000 10001010 00001100 11111001 
01100111 00100101 10110110 01010101 

10010111 11011011 10011001 00101110 
00000101 01001101 11101011 01010110 
01110011 10110111 11011010 01101101 
00101101 11011001 01001101 01111111 

01100000 00111110 10001011 10010100 
00101001 00101010 10001010 11000100 
10101000 00101011 11011111 01100101 
11001101 11000101 01101101 01100101 

10110010 10001101 10001111 01011100 
00010110 01000001 00100100 10000101 
01011010 01010111 10001100 10000001 
11011111 10010001 10111110 10010010 

01111000 00001010 10110001 00011101 
00100100 01111001 11010110 11110100 
00000110 01000001 01001111 01101010 
10110110 01100101 00010011 11110000 

10111010 00010011 10011100 00101111 
11000000 11101001 11110001 11010010 
01000101 10000110 11010011 11110010 
01001011 01101010 10010110 00000100 


00100010 01011001 01101111 10001100 
10111101 01011110 10100010 11101011 
10001000 11101100 11100110 01110110 
10100000 01111000 00111011 10001100 

00000010 00010111 01010111 11001100 
11000111 11001110 11110001 10101110 
10110111 11101101 00111100 01110001 
11110000 11010000 00000111 00011000 

11101111 01101000 11011101 10111111 
10001111 01101110 11010010 11111011 
10010000 10001010 00001100 11111001 
01100111 00100101 10110110 01010101 

10010111 11011011 10011001 00101110 
00000101 01001101 11101011 01010110 
01110011 10110111 11011010 01101101 
00101101 11011001 01001101 01111111 

01100000 00111110 10001011 10010100 
00101001 00101010 10001010 11000100 
10101000 00101011 11011111 01100101 
11001101 11000101 01101101 01100101 

10110010 10001101 10001111 01011100 
00010110 01000001 00100100 10000101 
01011010 01010111 10001100 10000001 
11011111 10010001 10111110 10010010 

01111000 00001010 10110001 00011101 
00100100 01111001 11010110 11110100 
00000110 01000001 01001111 01101010 
10110110 01100101 00010011 11110000 

10111010 00010011 10011100 00101111 
11000000 11101001 11110001 11010010 
01000101 10000110 11010011 11110010 
01001011 01101010 10010110 00000100 


00100010 01011001 01101111 10001100 
10111101 01011110 10100010 11101011 
10001000 11101100 11100110 01110110 
10100000 01111000 00111011 10001100 

00000010 00010111 01010111 11001100 
11000111 11001110 11110001 10101110 
10110111 11101101 00111100 01110001 
11110000 11010000 00000111 00011000 

11101111 01101000 11011101 10111111 
10001111 01101110 11010010 11111011 
10010000 10001010 00001100 11111001 
01100111 00100101 10110110 01010101 

10010111 11011011 10011001 00101110 
00000101 01001101 11101011 01010110 
01110011 10110111 11011010 01101101 
00101101 11011001 01001101 01111111 

01100000 00111110 10001011 10010100 
00101001 00101010 10001010 11000100 
10101000 00101011 11011111 01100101 
11001101 11000101 01101101 01100101 

10110010 10001101 10001111 01011100 
00010110 01000001 00100100 10000101 
01011010 01010111 10001100 10000001 
11011111 10010001 10111110 10010010 

01111000 00001010 10110001 00011101 
00100100 01111001 11010110 11110100 
00000110 01000001 01001111 01101010 
10110110 01100101 00010011 11110000 

10111010 00010011 10011100 00101111 
11000000 11101001 11110001 11010010 
01000101 10000110 11010011 11110010 
01001011 01101010 10010110 00000100 


00100010 01011001 01101111 10001100 
10111101 01011110 10100010 11101011 
10001000 11101100 11100110 01110110 
10100000 01111000 00111011 10001100 

00000010 00010111 01010111 11001100 
11000111 11001110 11110001 10101110 
10110111 11101101 00111100 01110001 
11110000 11010000 00000111 00011000 

11101111 01101000 11011101 10111111 
10001111 01101110 11010010 11111011 
10010000 10001010 00001100 11111001 
01100111 00100101 10110110 01010101 

10010111 11011011 10011001 00101110 
00000101 01001101 11101011 01010110 
01110011 10110111 11011010 01101101 
00101101 11011001 01001101 01111111 

01100000 00111110 10001011 10010100 
00101001 00101010 10001010 11000100 
10101000 00101011 11011111 01100101 
11001101 11000101 01101101 01100101 

10110010 10001101 10001111 01011100 
00010110 01000001 00100100 10000101 
01011010 01010111 10001100 10000001 
11011111 10010001 10111110 10010010 

01111000 00001010 10110001 00011101 
00100100 01111001 11010110 11110100 
00000110 01000001 01001111 01101010 
10110110 01100101 00010011 11110000 

10111010 00010011 10011100 00101111 
11000000 11101001 11110001 11010010 
01000101 10000110 11010011 11110010 
01001011 01101010 10010110 00000100 



00100010 01011001 01101111 10001100 
10111101 01011110 10100010 11101011 
10001000 11101100 11100110 01110110 
10100000 01111000 00111011 10001100 

00000010 00010111 01010111 11001100 
11000111 11001110 11110001 10101110 
10110111 11101101 00111100 01110001 
11110000 11010000 00000111 00011000 

11101111 01101000 11011101 10111111 
10001111 01101110 11010010 11111011 
10010000 10001010 00001100 11111001 
01100111 00100101 10110110 01010101 

10010111 11011011 10011001 00101110 
00000101 01001101 11101011 01010110 
01110011 10110111 11011010 01101101 
00101101 11011001 01001101 01111111 

01100000 00111110 10001011 10010100 
00101001 00101010 10001010 11000100 
10101000 00101011 11011111 01100101 
11001101 11000101 01101101 01100101 

10110010 10001101 10001111 01011100 
00010110 01000001 00100100 10000101 
01011010 01010111 10001100 10000001 
11011111 10010001 10111110 10010010 

01111000 00001010 10110001 00011101 
00100100 01111001 11010110 11110100 
00000110 01000001 01001111 01101010 
10110110 01100101 00010011 11110000 

10111010 00010011 10011100 00101111 
11000000 11101001 11110001 11010010 
01000101 10000110 11010011 11110010 
01001011 01101010 10010110 00000100 


00100010 01011001 01101111 10001100 
10111101 01011110 10100010 11101011 
10001000 11101100 11100110 01110110 
10100000 01111000 00111011 10001100 

00000010 00010111 01010111 11001100 
11000111 11001110 11110001 10101110 
10110111 11101101 00111100 01110001 
11110000 11010000 00000111 00011000 

11101111 01101000 11011101 10111111 
10001111 01101110 11010010 11111011 
10010000 10001010 00001100 11111001 
01100111 00100101 10110110 01010101 

10010111 11011011 10011001 00101110 
00000101 01001101 11101011 01010110 
01110011 10110111 11011010 01101101 
00101101 11011001 01001101 01111111 

01100000 00111110 10001011 10010100 
00101001 00101010 10001010 11000100 
10101000 00101011 11011111 01100101 
11001101 11000101 01101101 01100101 

10110010 10001101 10001111 01011100 
00010110 01000001 00100100 10000101 
01011010 01010111 10001100 10000001 
11011111 10010001 10111110 10010010 

01111000 00001010 10110001 00011101 
00100100 01111001 11010110 11110100 
00000110 01000001 01001111 01101010 
10110110 01100101 00010011 11110000 

10111010 00010011 10011100 00101111 
11000000 11101001 11110001 11010010 
01000101 10000110 11010011 11110010 
01001011 01101010 10010110 00000100 


00100010 01011001 01101111 10001100 
10111101 01011110 10100010 11101011 
10001000 11101100 11100110 01110110 
10100000 01111000 00111011 10001100 

00000010 00010111 01010111 11001100 
11000111 11001110 11110001 10101110 
10110111 11101101 00111100 01110001 
11110000 11010000 00000111 00011000 

11101111 01101000 11011101 10111111 
10001111 01101110 11010010 11111011 
10010000 10001010 00001100 11111001 
01100111 00100101 10110110 01010101 

10010111 11011011 10011001 00101110 
00000101 01001101 11101011 01010110 
01110011 10110111 11011010 01101101 
00101101 11011001 01001101 01111111 

01100000 00111110 10001011 10010100 
00101001 00101010 10001010 11000100 
10101000 00101011 11011111 01100101 
11001101 11000101 01101101 01100101 

10110010 10001101 10001111 01011100 
00010110 01000001 00100100 10000101 
01011010 01010111 10001100 10000001 
11011111 10010001 10111110 10010010 

01111000 00001010 10110001 00011101 
00100100 01111001 11010110 11110100 
00000110 01000001 01001111 01101010 
10110110 01100101 00010011 11110000 

10111010 00010011 10011100 00101111 
11000000 11101001 11110001 11010010 
01000101 10000110 11010011 11110010 
01001011 01101010 10010110 00000100 


00100010 01011001 01101111 10001100 
10111101 01011110 10100010 11101011 
10001000 11101100 11100110 01110110 
10100000 01111000 00111011 10001100 

00000010 00010111 01010111 11001100 
11000111 11001110 11110001 10101110 
10110111 11101101 00111100 01110001 
11110000 11010000 00000111 00011000 

11101111 01101000 11011101 10111111 
10001111 01101110 11010010 11111011 
10010000 10001010 00001100 11111001 
01100111 00100101 10110110 01010101 

10010111 11011011 10011001 00101110 
00000101 01001101 11101011 01010110 
01110011 10110111 11011010 01101101 
00101101 11011001 01001101 01111111 

01100000 00111110 10001011 10010100 
00101001 00101010 10001010 11000100 
10101000 00101011 11011111 01100101 
11001101 11000101 01101101 01100101 

10110010 10001101 10001111 01011100 
00010110 01000001 00100100 10000101 
01011010 01010111 10001100 10000001 
11011111 10010001 10111110 10010010 

01111000 00001010 10110001 00011101 
00100100 01111001 11010110 11110100 
00000110 01000001 01001111 01101010 
10110110 01100101 00010011 11110000 

10111010 00010011 10011100 00101111 
11000000 11101001 11110001 11010010 
01000101 10000110 11010011 11110010 
01001011 01101010 10010110 00000100 



00100010 01011001 01101111 10001100 
10111101 01011110 10100010 11101011 
10001000 11101100 11100110 01110110 
10100000 01111000 00111011 10001100 

00000010 00010111 01010111 11001100 
11000111 11001110 11110001 10101110 
10110111 11101101 00111100 01110001 
11110000 11010000 00000111 00011000 

11101111 01101000 11011101 10111111 
10001111 01101110 11010010 11111011 
10010000 10001010 00001100 11111001 
01100111 00100101 10110110 01010101 

10010111 11011011 10011001 00101110 
00000101 01001101 11101011 01010110 
01110011 10110111 11011010 01101101 
00101101 11011001 01001101 01111111 

01100000 00111110 10001011 10010100 
00101001 00101010 10001010 11000100 
10101000 00101011 11011111 01100101 
11001101 11000101 01101101 01100101 

10110010 10001101 10001111 01011100 
00010110 01000001 00100100 10000101 
01011010 01010111 10001100 10000001 
11011111 10010001 10111110 10010010 

01111000 00001010 10110001 00011101 
00100100 01111001 11010110 11110100 
00000110 01000001 01001111 01101010 
10110110 01100101 00010011 11110000 

10111010 00010011 10011100 00101111 
11000000 11101001 11110001 11010010 
01000101 10000110 11010011 11110010 
01001011 01101010 10010110 00000100 


00100010 01011001 01101111 10001100 
10111101 01011110 10100010 11101011 
10001000 11101100 11100110 01110110 
10100000 01111000 00111011 10001100 

00000010 00010111 01010111 11001100 
11000111 11001110 11110001 10101110 
10110111 11101101 00111100 01110001 
11110000 11010000 00000111 00011000 

11101111 01101000 11011101 10111111 
10001111 01101110 11010010 11111011 
10010000 10001010 00001100 11111001 
01100111 00100101 10110110 01010101 

10010111 11011011 10011001 00101110 
00000101 01001101 11101011 01010110 
01110011 10110111 11011010 01101101 
00101101 11011001 01001101 01111111 

01100000 00111110 10001011 10010100 
00101001 00101010 10001010 11000100 
10101000 00101011 11011111 01100101 
11001101 11000101 01101101 01100101 

10110010 10001101 10001111 01011100 
00010110 01000001 00100100 10000101 
01011010 01010111 10001100 10000001 
11011111 10010001 10111110 10010010 

01111000 00001010 10110001 00011101 
00100100 01111001 11010110 11110100 
00000110 01000001 01001111 01101010 
10110110 01100101 00010011 11110000 

10111010 00010011 10011100 00101111 
11000000 11101001 11110001 11010010 
01000101 10000110 11010011 11110010 
01001011 01101010 10010110 00000100 


00100010 01011001 01101111 10001100 
10111101 01011110 10100010 11101011 
10001000 11101100 11100110 01110110 
10100000 01111000 00111011 10001100 

00000010 00010111 01010111 11001100 
11000111 11001110 11110001 10101110 
10110111 11101101 00111100 01110001 
11110000 11010000 00000111 00011000 

11101111 01101000 11011101 10111111 
10001111 01101110 11010010 11111011 
10010000 10001010 00001100 11111001 
01100111 00100101 10110110 01010101 

10010111 11011011 10011001 00101110 
00000101 01001101 11101011 01010110 
01110011 10110111 11011010 01101101 
00101101 11011001 01001101 01111111 

01100000 00111110 10001011 10010100 
00101001 00101010 10001010 11000100 
10101000 00101011 11011111 01100101 
11001101 11000101 01101101 01100101 

10110010 10001101 10001111 01011100 
00010110 01000001 00100100 10000101 
01011010 01010111 10001100 10000001 
11011111 10010001 10111110 10010010 

01111000 00001010 10110001 00011101 
00100100 01111001 11010110 11110100 
00000110 01000001 01001111 01101010 
10110110 01100101 00010011 11110000 

10111010 00010011 10011100 00101111 
11000000 11101001 11110001 11010010 
01000101 10000110 11010011 11110010 
01001011 01101010 10010110 00000100 


00100010 01011001 01101111 10001100 
10111101 01011110 10100010 11101011 
10001000 11101100 11100110 01110110 
10100000 01111000 00111011 10001100 

00000010 00010111 01010111 11001100 
11000111 11001110 11110001 10101110 
10110111 11101101 00111100 01110001 
11110000 11010000 00000111 00011000 

11101111 01101000 11011101 10111111 
10001111 01101110 11010010 11111011 
10010000 10001010 00001100 11111001 
01100111 00100101 10110110 01010101 

10010111 11011011 10011001 00101110 
00000101 01001101 11101011 01010110 
01110011 10110111 11011010 01101101 
00101101 11011001 01001101 01111111 

01100000 00111110 10001011 10010100 
00101001 00101010 10001010 11000100 
10101000 00101011 11011111 01100101 
11001101 11000101 01101101 01100101 

10110010 10001101 10001111 01011100 
00010110 01000001 00100100 10000101 
01011010 01010111 10001100 10000001 
11011111 10010001 10111110 10010010 

01111000 00001010 10110001 00011101 
00100100 01111001 11010110 11110100 
00000110 01000001 01001111 01101010 
10110110 01100101 00010011 11110000 

10111010 00010011 10011100 00101111 
11000000 11101001 11110001 11010010 
01000101 10000110 11010011 11110010 
01001011 01101010 10010110 00000100 



00100010 01011001 01101111 10001100 
10111101 01011110 10100010 11101011 
10001000 11101100 11100110 01110110 
10100000 01111000 00111011 10001100 

00000010 00010111 01010111 11001100 
11000111 11001110 11110001 10101110 
10110111 11101101 00111100 01110001 
11110000 11010000 00000111 00011000 

11101111 01101000 11011101 10111111 
10001111 01101110 11010010 11111011 
10010000 10001010 00001100 11111001 
01100111 00100101 10110110 01010101 

10010111 11011011 10011001 00101110 
00000101 01001101 11101011 01010110 
01110011 10110111 11011010 01101101 
00101101 11011001 01001101 01111111 

01100000 00111110 10001011 10010100 
00101001 00101010 10001010 11000100 
10101000 00101011 11011111 01100101 
11001101 11000101 01101101 01100101 

10110010 10001101 10001111 01011100 
00010110 01000001 00100100 10000101 
01011010 01010111 10001100 10000001 
11011111 10010001 10111110 10010010 

01111000 00001010 10110001 00011101 
00100100 01111001 11010110 11110100 
00000110 01000001 01001111 01101010 
10110110 01100101 00010011 11110000 

10111010 00010011 10011100 00101111 
11000000 11101001 11110001 11010010 
01000101 10000110 11010011 11110010 
01001011 01101010 10010110 00000100 


00100010 01011001 01101111 10001100 
10111101 01011110 10100010 11101011 
10001000 11101100 11100110 01110110 
10100000 01111000 00111011 10001100 

00000010 00010111 01010111 11001100 
11000111 11001110 11110001 10101110 
10110111 11101101 00111100 01110001 
11110000 11010000 00000111 00011000 

11101111 01101000 11011101 10111111 
10001111 01101110 11010010 11111011 
10010000 10001010 00001100 11111001 
01100111 00100101 10110110 01010101 

10010111 11011011 10011001 00101110 
00000101 01001101 11101011 01010110 
01110011 10110111 11011010 01101101 
00101101 11011001 01001101 01111111 

01100000 00111110 10001011 10010100 
00101001 00101010 10001010 11000100 
10101000 00101011 11011111 01100101 
11001101 11000101 01101101 01100101 

10110010 10001101 10001111 01011100 
00010110 01000001 00100100 10000101 
01011010 01010111 10001100 10000001 
11011111 10010001 10111110 10010010 

01111000 00001010 10110001 00011101 
00100100 01111001 11010110 11110100 
00000110 01000001 01001111 01101010 
10110110 01100101 00010011 11110000 

10111010 00010011 10011100 00101111 
11000000 11101001 11110001 11010010 
01000101 10000110 11010011 11110010 
01001011 01101010 10010110 00000100 


00100010 01011001 01101111 10001100 
10111101 01011110 10100010 11101011 
10001000 11101100 11100110 01110110 
10100000 01111000 00111011 10001100 

00000010 00010111 01010111 11001100 
11000111 11001110 11110001 10101110 
10110111 11101101 00111100 01110001 
11110000 11010000 00000111 00011000 

11101111 01101000 11011101 10111111 
10001111 01101110 11010010 11111011 
10010000 10001010 00001100 11111001 
01100111 00100101 10110110 01010101 

10010111 11011011 10011001 00101110 
00000101 01001101 11101011 01010110 
01110011 10110111 11011010 01101101 
00101101 11011001 01001101 01111111 

01100000 00111110 10001011 10010100 
00101001 00101010 10001010 11000100 
10101000 00101011 11011111 01100101 
11001101 11000101 01101101 01100101 

10110010 10001101 10001111 01011100 
00010110 01000001 00100100 10000101 
01011010 01010111 10001100 10000001 
11011111 10010001 10111110 10010010 

01111000 00001010 10110001 00011101 
00100100 01111001 11010110 11110100 
00000110 01000001 01001111 01101010 
10110110 01100101 00010011 11110000 

10111010 00010011 10011100 00101111 
11000000 11101001 11110001 11010010 
01000101 10000110 11010011 11110010 
01001011 01101010 10010110 00000100 


00100010 01011001 01101111 10001100 
10111101 01011110 10100010 11101011 
10001000 11101100 11100110 01110110 
10100000 01111000 00111011 10001100 

00000010 00010111 01010111 11001100 
11000111 11001110 11110001 10101110 
10110111 11101101 00111100 01110001 
11110000 11010000 00000111 00011000 

11101111 01101000 11011101 10111111 
10001111 01101110 11010010 11111011 
10010000 10001010 00001100 11111001 
01100111 00100101 10110110 01010101 

10010111 11011011 10011001 00101110 
00000101 01001101 11101011 01010110 
01110011 10110111 11011010 01101101 
00101101 11011001 01001101 01111111 

01100000 00111110 10001011 10010100 
00101001 00101010 10001010 11000100 
10101000 00101011 11011111 01100101 
11001101 11000101 01101101 01100101 

10110010 10001101 10001111 01011100 
00010110 01000001 00100100 10000101 
01011010 01010111 10001100 10000001 
11011111 10010001 10111110 10010010 

01111000 00001010 10110001 00011101 
00100100 01111001 11010110 11110100 
00000110 01000001 01001111 01101010 
10110110 01100101 00010011 11110000 

10111010 00010011 10011100 00101111 
11000000 11101001 11110001 11010010 
01000101 10000110 11010011 11110010 
01001011 01101010 10010110 00000100 



00100010 01011001 01101111 10001100 
10111101 01011110 10100010 11101011 
10001000 11101100 11100110 01110110 
10100000 01111000 00111011 10001100 

00000010 00010111 01010111 11001100 
11000111 11001110 11110001 10101110 
10110111 11101101 00111100 01110001 
11110000 11010000 00000111 00011000 

11101111 01101000 11011101 10111111 
10001111 01101110 11010010 11111011 
10010000 10001010 00001100 11111001 
01100111 00100101 10110110 01010101 

10010111 11011011 10011001 00101110 
00000101 01001101 11101011 01010110 
01110011 10110111 11011010 01101101 
00101101 11011001 01001101 01111111 

01100000 00111110 10001011 10010100 
00101001 00101010 10001010 11000100 
10101000 00101011 11011111 01100101 
11001101 11000101 01101101 01100101 

10110010 10001101 10001111 01011100 
00010110 01000001 00100100 10000101 
01011010 01010111 10001100 10000001 
11011111 10010001 10111110 10010010 

01111000 00001010 10110001 00011101 
00100100 01111001 11010110 11110100 
00000110 01000001 01001111 01101010 
10110110 01100101 00010011 11110000 

10111010 00010011 10011100 00101111 
11000000 11101001 11110001 11010010 
01000101 10000110 11010011 11110010 
01001011 01101010 10010110 00000100 


00100010 01011001 01101111 10001100 
10111101 01011110 10100010 11101011 
10001000 11101100 11100110 01110110 
10100000 01111000 00111011 10001100 

00000010 00010111 01010111 11001100 
11000111 11001110 11110001 10101110 
10110111 11101101 00111100 01110001 
11110000 11010000 00000111 00011000 

11101111 01101000 11011101 10111111 
10001111 01101110 11010010 11111011 
10010000 10001010 00001100 11111001 
01100111 00100101 10110110 01010101 

10010111 11011011 10011001 00101110 
00000101 01001101 11101011 01010110 
01110011 10110111 11011010 01101101 
00101101 11011001 01001101 01111111 

01100000 00111110 10001011 10010100 
00101001 00101010 10001010 11000100 
10101000 00101011 11011111 01100101 
11001101 11000101 01101101 01100101 

10110010 10001101 10001111 01011100 
00010110 01000001 00100100 10000101 
01011010 01010111 10001100 10000001 
11011111 10010001 10111110 10010010 

01111000 00001010 10110001 00011101 
00100100 01111001 11010110 11110100 
00000110 01000001 01001111 01101010 
10110110 01100101 00010011 11110000 

10111010 00010011 10011100 00101111 
11000000 11101001 11110001 11010010 
01000101 10000110 11010011 11110010 
01001011 01101010 10010110 00000100 


00100010 01011001 01101111 10001100 
10111101 01011110 10100010 11101011 
10001000 11101100 11100110 01110110 
10100000 01111000 00111011 10001100 

00000010 00010111 01010111 11001100 
11000111 11001110 11110001 10101110 
10110111 11101101 00111100 01110001 
11110000 11010000 00000111 00011000 

11101111 01101000 11011101 10111111 
10001111 01101110 11010010 11111011 
10010000 10001010 00001100 11111001 
01100111 00100101 10110110 01010101 

10010111 11011011 10011001 00101110 
00000101 01001101 11101011 01010110 
01110011 10110111 11011010 01101101 
00101101 11011001 01001101 01111111 

01100000 00111110 10001011 10010100 
00101001 00101010 10001010 11000100 
10101000 00101011 11011111 01100101 
11001101 11000101 01101101 01100101 

10110010 10001101 10001111 01011100 
00010110 01000001 00100100 10000101 
01011010 01010111 10001100 10000001 
11011111 10010001 10111110 10010010 

01111000 00001010 10110001 00011101 
00100100 01111001 11010110 11110100 
00000110 01000001 01001111 01101010 
10110110 01100101 00010011 11110000 

10111010 00010011 10011100 00101111 
11000000 11101001 11110001 11010010 
01000101 10000110 11010011 11110010 
01001011 01101010 10010110 00000100 


00100010 01011001 01101111 10001100 
10111101 01011110 10100010 11101011 
10001000 11101100 11100110 01110110 
10100000 01111000 00111011 10001100 

00000010 00010111 01010111 11001100 
11000111 11001110 11110001 10101110 
10110111 11101101 00111100 01110001 
11110000 11010000 00000111 00011000 

11101111 01101000 11011101 10111111 
10001111 01101110 11010010 11111011 
10010000 10001010 00001100 11111001 
01100111 00100101 10110110 01010101 

10010111 11011011 10011001 00101110 
00000101 01001101 11101011 01010110 
01110011 10110111 11011010 01101101 
00101101 11011001 01001101 01111111 

01100000 00111110 10001011 10010100 
00101001 00101010 10001010 11000100 
10101000 00101011 11011111 01100101 
11001101 11000101 01101101 01100101 

10110010 10001101 10001111 01011100 
00010110 01000001 00100100 10000101 
01011010 01010111 10001100 10000001 
11011111 10010001 10111110 10010010 

01111000 00001010 10110001 00011101 
00100100 01111001 11010110 11110100 
00000110 01000001 01001111 01101010 
10110110 01100101 00010011 11110000 

10111010 00010011 10011100 00101111 
11000000 11101001 11110001 11010010 
01000101 10000110 11010011 11110010 
01001011 01101010 10010110 00000100 



00100010 01011001 01101111 10001100 
10111101 01011110 10100010 11101011 
10001000 11101100 11100110 01110110 
10100000 01111000 00111011 10001100 

00000010 00010111 01010111 11001100 
11000111 11001110 11110001 10101110 
10110111 11101101 00111100 01110001 
11110000 11010000 00000111 00011000 

11101111 01101000 11011101 10111111 
10001111 01101110 11010010 11111011 
10010000 10001010 00001100 11111001 
01100111 00100101 10110110 01010101 

10010111 11011011 10011001 00101110 
00000101 01001101 11101011 01010110 
01110011 10110111 11011010 01101101 
00101101 11011001 01001101 01111111 

01100000 00111110 10001011 10010100 
00101001 00101010 10001010 11000100 
10101000 00101011 11011111 01100101 
11001101 11000101 01101101 01100101 

10110010 10001101 10001111 01011100 
00010110 01000001 00100100 10000101 
01011010 01010111 10001100 10000001 
11011111 10010001 10111110 10010010 

01111000 00001010 10110001 00011101 
00100100 01111001 11010110 11110100 
00000110 01000001 01001111 01101010 
10110110 01100101 00010011 11110000 

10111010 00010011 10011100 00101111 
11000000 11101001 11110001 11010010 
01000101 10000110 11010011 11110010 
01001011 01101010 10010110 00000100 


00100010 01011001 01101111 10001100 
10111101 01011110 10100010 11101011 
10001000 11101100 11100110 01110110 
10100000 01111000 00111011 10001100 

00000010 00010111 01010111 11001100 
11000111 11001110 11110001 10101110 
10110111 11101101 00111100 01110001 
11110000 11010000 00000111 00011000 

11101111 01101000 11011101 10111111 
10001111 01101110 11010010 11111011 
10010000 10001010 00001100 11111001 
01100111 00100101 10110110 01010101 

10010111 11011011 10011001 00101110 
00000101 01001101 11101011 01010110 
01110011 10110111 11011010 01101101 
00101101 11011001 01001101 01111111 

01100000 00111110 10001011 10010100 
00101001 00101010 10001010 11000100 
10101000 00101011 11011111 01100101 
11001101 11000101 01101101 01100101 

10110010 10001101 10001111 01011100 
00010110 01000001 00100100 10000101 
01011010 01010111 10001100 10000001 
11011111 10010001 10111110 10010010 

01111000 00001010 10110001 00011101 
00100100 01111001 11010110 11110100 
00000110 01000001 01001111 01101010 
10110110 01100101 00010011 11110000 

10111010 00010011 10011100 00101111 
11000000 11101001 11110001 11010010 
01000101 10000110 11010011 11110010 
01001011 01101010 10010110 00000100 


00100010 01011001 01101111 10001100 
10111101 01011110 10100010 11101011 
10001000 11101100 11100110 01110110 
10100000 01111000 00111011 10001100 

00000010 00010111 01010111 11001100 
11000111 11001110 11110001 10101110 
10110111 11101101 00111100 01110001 
11110000 11010000 00000111 00011000 

11101111 01101000 11011101 10111111 
10001111 01101110 11010010 11111011 
10010000 10001010 00001100 11111001 
01100111 00100101 10110110 01010101 

10010111 11011011 10011001 00101110 
00000101 01001101 11101011 01010110 
01110011 10110111 11011010 01101101 
00101101 11011001 01001101 01111111 

01100000 00111110 10001011 10010100 
00101001 00101010 10001010 11000100 
10101000 00101011 11011111 01100101 
11001101 11000101 01101101 01100101 

10110010 10001101 10001111 01011100 
00010110 01000001 00100100 10000101 
01011010 01010111 10001100 10000001 
11011111 10010001 10111110 10010010 

01111000 00001010 10110001 00011101 
00100100 01111001 11010110 11110100 
00000110 01000001 01001111 01101010 
10110110 01100101 00010011 11110000 

10111010 00010011 10011100 00101111 
11000000 11101001 11110001 11010010 
01000101 10000110 11010011 11110010 
01001011 01101010 10010110 00000100 


00100010 01011001 01101111 10001100 
10111101 01011110 10100010 11101011 
10001000 11101100 11100110 01110110 
10100000 01111000 00111011 10001100 

00000010 00010111 01010111 11001100 
11000111 11001110 11110001 10101110 
10110111 11101101 00111100 01110001 
11110000 11010000 00000111 00011000 

11101111 01101000 11011101 10111111 
10001111 01101110 11010010 11111011 
10010000 10001010 00001100 11111001 
01100111 00100101 10110110 01010101 

10010111 11011011 10011001 00101110 
00000101 01001101 11101011 01010110 
01110011 10110111 11011010 01101101 
00101101 11011001 01001101 01111111 

01100000 00111110 10001011 10010100 
00101001 00101010 10001010 11000100 
10101000 00101011 11011111 01100101 
11001101 11000101 01101101 01100101 

10110010 10001101 10001111 01011100 
00010110 01000001 00100100 10000101 
01011010 01010111 10001100 10000001 
11011111 10010001 10111110 10010010 

01111000 00001010 10110001 00011101 
00100100 01111001 11010110 11110100 
00000110 01000001 01001111 01101010 
10110110 01100101 00010011 11110000 

10111010 00010011 10011100 00101111 
11000000 11101001 11110001 11010010 
01000101 10000110 11010011 11110010 
01001011 01101010 10010110 00000100 



00100010 01011001 01101111 10001100 
10111101 01011110 10100010 11101011 
10001000 11101100 11100110 01110110 
10100000 01111000 00111011 10001100 

00000010 00010111 01010111 11001100 
11000111 11001110 11110001 10101110 
10110111 11101101 00111100 01110001 
11110000 11010000 00000111 00011000 

11101111 01101000 11011101 10111111 
10001111 01101110 11010010 11111011 
10010000 10001010 00001100 11111001 
01100111 00100101 10110110 01010101 

10010111 11011011 10011001 00101110 
00000101 01001101 11101011 01010110 
01110011 10110111 11011010 01101101 
00101101 11011001 01001101 01111111 

01100000 00111110 10001011 10010100 
00101001 00101010 10001010 11000100 
10101000 00101011 11011111 01100101 
11001101 11000101 01101101 01100101 

10110010 10001101 10001111 01011100 
00010110 01000001 00100100 10000101 
01011010 01010111 10001100 10000001 
11011111 10010001 10111110 10010010 

01111000 00001010 10110001 00011101 
00100100 01111001 11010110 11110100 
00000110 01000001 01001111 01101010 
10110110 01100101 00010011 11110000 

10111010 00010011 10011100 00101111 
11000000 11101001 11110001 11010010 
01000101 10000110 11010011 11110010 
01001011 01101010 10010110 00000100 


00100010 01011001 01101111 10001100 
10111101 01011110 10100010 11101011 
10001000 11101100 11100110 01110110 
10100000 01111000 00111011 10001100 

00000010 00010111 01010111 11001100 
11000111 11001110 11110001 10101110 
10110111 11101101 00111100 01110001 
11110000 11010000 00000111 00011000 

11101111 01101000 11011101 10111111 
10001111 01101110 11010010 11111011 
10010000 10001010 00001100 11111001 
01100111 00100101 10110110 01010101 

10010111 11011011 10011001 00101110 
00000101 01001101 11101011 01010110 
01110011 10110111 11011010 01101101 
00101101 11011001 01001101 01111111 

01100000 00111110 10001011 10010100 
00101001 00101010 10001010 11000100 
10101000 00101011 11011111 01100101 
11001101 11000101 01101101 01100101 

10110010 10001101 10001111 01011100 
00010110 01000001 00100100 10000101 
01011010 01010111 10001100 10000001 
11011111 10010001 10111110 10010010 

01111000 00001010 10110001 00011101 
00100100 01111001 11010110 11110100 
00000110 01000001 01001111 01101010 
10110110 01100101 00010011 11110000 

10111010 00010011 10011100 00101111 
11000000 11101001 11110001 11010010 
01000101 10000110 11010011 11110010 
01001011 01101010 10010110 00000100 


00100010 01011001 01101111 10001100 
10111101 01011110 10100010 11101011 
10001000 11101100 11100110 01110110 
10100000 01111000 00111011 10001100 

00000010 00010111 01010111 11001100 
11000111 11001110 11110001 10101110 
10110111 11101101 00111100 01110001 
11110000 11010000 00000111 00011000 

11101111 01101000 11011101 10111111 
10001111 01101110 11010010 11111011 
10010000 10001010 00001100 11111001 
01100111 00100101 10110110 01010101 

10010111 11011011 10011001 00101110 
00000101 01001101 11101011 01010110 
01110011 10110111 11011010 01101101 
00101101 11011001 01001101 01111111 

01100000 00111110 10001011 10010100 
00101001 00101010 10001010 11000100 
10101000 00101011 11011111 01100101 
11001101 11000101 01101101 01100101 

10110010 10001101 10001111 01011100 
00010110 01000001 00100100 10000101 
01011010 01010111 10001100 10000001 
11011111 10010001 10111110 10010010 

01111000 00001010 10110001 00011101 
00100100 01111001 11010110 11110100 
00000110 01000001 01001111 01101010 
10110110 01100101 00010011 11110000 

10111010 00010011 10011100 00101111 
11000000 11101001 11110001 11010010 
01000101 10000110 11010011 11110010 
01001011 01101010 10010110 00000100 


00100010 01011001 01101111 10001100 
10111101 01011110 10100010 11101011 
10001000 11101100 11100110 01110110 
10100000 01111000 00111011 10001100 

00000010 00010111 01010111 11001100 
11000111 11001110 11110001 10101110 
10110111 11101101 00111100 01110001 
11110000 11010000 00000111 00011000 

11101111 01101000 11011101 10111111 
10001111 01101110 11010010 11111011 
10010000 10001010 00001100 11111001 
01100111 00100101 10110110 01010101 

10010111 11011011 10011001 00101110 
00000101 01001101 11101011 01010110 
01110011 10110111 11011010 01101101 
00101101 11011001 01001101 01111111 

01100000 00111110 10001011 10010100 
00101001 00101010 10001010 11000100 
10101000 00101011 11011111 01100101 
11001101 11000101 01101101 01100101 

10110010 10001101 10001111 01011100 
00010110 01000001 00100100 10000101 
01011010 01010111 10001100 10000001 
11011111 10010001 10111110 10010010 

01111000 00001010 10110001 00011101 
00100100 01111001 11010110 11110100 
00000110 01000001 01001111 01101010 
10110110 01100101 00010011 11110000 

10111010 00010011 10011100 00101111 
11000000 11101001 11110001 11010010 
01000101 10000110 11010011 11110010 
01001011 01101010 10010110 00000100 



00100010 01011001 01101111 10001100 
10111101 01011110 10100010 11101011 
10001000 11101100 11100110 01110110 
10100000 01111000 00111011 10001100 

00000010 00010111 01010111 11001100 
11000111 11001110 11110001 10101110 
10110111 11101101 00111100 01110001 
11110000 11010000 00000111 00011000 

11101111 01101000 11011101 10111111 
10001111 01101110 11010010 11111011 
10010000 10001010 00001100 11111001 
01100111 00100101 10110110 01010101 

10010111 11011011 10011001 00101110 
00000101 01001101 11101011 01010110 
01110011 10110111 11011010 01101101 
00101101 11011001 01001101 01111111 

01100000 00111110 10001011 10010100 
00101001 00101010 10001010 11000100 
10101000 00101011 11011111 01100101 
11001101 11000101 01101101 01100101 

10110010 10001101 10001111 01011100 
00010110 01000001 00100100 10000101 
01011010 01010111 10001100 10000001 
11011111 10010001 10111110 10010010 

01111000 00001010 10110001 00011101 
00100100 01111001 11010110 11110100 
00000110 01000001 01001111 01101010 
10110110 01100101 00010011 11110000 

10111010 00010011 10011100 00101111 
11000000 11101001 11110001 11010010 
01000101 10000110 11010011 11110010 
01001011 01101010 10010110 00000100 


00100010 01011001 01101111 10001100 
10111101 01011110 10100010 11101011 
10001000 11101100 11100110 01110110 
10100000 01111000 00111011 10001100 

00000010 00010111 01010111 11001100 
11000111 11001110 11110001 10101110 
10110111 11101101 00111100 01110001 
11110000 11010000 00000111 00011000 

11101111 01101000 11011101 10111111 
10001111 01101110 11010010 11111011 
10010000 10001010 00001100 11111001 
01100111 00100101 10110110 01010101 

10010111 11011011 10011001 00101110 
00000101 01001101 11101011 01010110 
01110011 10110111 11011010 01101101 
00101101 11011001 01001101 01111111 

01100000 00111110 10001011 10010100 
00101001 00101010 10001010 11000100 
10101000 00101011 11011111 01100101 
11001101 11000101 01101101 01100101 

10110010 10001101 10001111 01011100 
00010110 01000001 00100100 10000101 
01011010 01010111 10001100 10000001 
11011111 10010001 10111110 10010010 

01111000 00001010 10110001 00011101 
00100100 01111001 11010110 11110100 
00000110 01000001 01001111 01101010 
10110110 01100101 00010011 11110000 

10111010 00010011 10011100 00101111 
11000000 11101001 11110001 11010010 
01000101 10000110 11010011 11110010 
01001011 01101010 10010110 00000100 


00100010 01011001 01101111 10001100 
10111101 01011110 10100010 11101011 
10001000 11101100 11100110 01110110 
10100000 01111000 00111011 10001100 

00000010 00010111 01010111 11001100 
11000111 11001110 11110001 10101110 
10110111 11101101 00111100 01110001 
11110000 11010000 00000111 00011000 

11101111 01101000 11011101 10111111 
10001111 01101110 11010010 11111011 
10010000 10001010 00001100 11111001 
01100111 00100101 10110110 01010101 

10010111 11011011 10011001 00101110 
00000101 01001101 11101011 01010110 
01110011 10110111 11011010 01101101 
00101101 11011001 01001101 01111111 

01100000 00111110 10001011 10010100 
00101001 00101010 10001010 11000100 
10101000 00101011 11011111 01100101 
11001101 11000101 01101101 01100101 

10110010 10001101 10001111 01011100 
00010110 01000001 00100100 10000101 
01011010 01010111 10001100 10000001 
11011111 10010001 10111110 10010010 

01111000 00001010 10110001 00011101 
00100100 01111001 11010110 11110100 
00000110 01000001 01001111 01101010 
10110110 01100101 00010011 11110000 

10111010 00010011 10011100 00101111 
11000000 11101001 11110001 11010010 
01000101 10000110 11010011 11110010 
01001011 01101010 10010110 00000100 


00100010 01011001 01101111 10001100 
10111101 01011110 10100010 11101011 
10001000 11101100 11100110 01110110 
10100000 01111000 00111011 10001100 

00000010 00010111 01010111 11001100 
11000111 11001110 11110001 10101110 
10110111 11101101 00111100 01110001 
11110000 11010000 00000111 00011000 

11101111 01101000 11011101 10111111 
10001111 01101110 11010010 11111011 
10010000 10001010 00001100 11111001 
01100111 00100101 10110110 01010101 

10010111 11011011 10011001 00101110 
00000101 01001101 11101011 01010110 
01110011 10110111 11011010 01101101 
00101101 11011001 01001101 01111111 

01100000 00111110 10001011 10010100 
00101001 00101010 10001010 11000100 
10101000 00101011 11011111 01100101 
11001101 11000101 01101101 01100101 

10110010 10001101 10001111 01011100 
00010110 01000001 00100100 10000101 
01011010 01010111 10001100 10000001 
11011111 10010001 10111110 10010010 

01111000 00001010 10110001 00011101 
