00011010 11000111 01010001 
11111011 10100101 01101110 
10000010 00001011 01001001 

10011100 01101001 10100011 
00100010 10010001 10110011 
11101000 00001101 00101100 

01111000 11000001 00010010 
00110110 10110000 01111011 
01011001 11010010 00000111 

10011000 01110100 00011000 
11001000 11100110 01001010 
10001011 00001111 00000001 

00001001 10111000 10010011 
10011010 10101000 11111101 
00110010 00110011 10110101 

10101101 10000011 10001010 
10011010 00010110 00111011 
11001100 11001110 11110110 

01011000 01011001 11101101 
01110010 10110010 01001001 
01111101 01111111 11010100 

01000000 00000110 01101010 
11110100 00011100 01100100 
10111000 11011111 11001010 


00011010 11000111 01010001 
11111011 10100101 01101110 
10000010 00001011 01001001 

10011100 01101001 10100011 
00100010 10010001 10110011 
11101000 00001101 00101100 

01111000 11000001 00010010 
00110110 10110000 01111011 
01011001 11010010 00000111 

10011000 01110100 00011000 
11001000 11100110 01001010 
10001011 00001111 00000001 

00001001 10111000 10010011 
10011010 10101000 11111101 
00110010 00110011 10110101 

10101101 10000011 10001010 
10011010 00010110 00111011 
11001100 11001110 11110110 

01011000 01011001 11101101 
01110010 10110010 01001001 
01111101 01111111 11010100 

01000000 00000110 01101010 
11110100 00011100 01100100 
10111000 11011111 11001010 


00011010 11000111 01010001 
11111011 10100101 01101110 
10000010 00001011 01001001 

10011100 01101001 10100011 
00100010 10010001 10110011 
11101000 00001101 00101100 

01111000 11000001 00010010 
00110110 10110000 01111011 
01011001 11010010 00000111 

10011000 01110100 00011000 
11001000 11100110 01001010 
10001011 00001111 00000001 

00001001 10111000 10010011 
10011010 10101000 11111101 
00110010 00110011 10110101 

10101101 10000011 10001010 
10011010 00010110 00111011 
11001100 11001110 11110110 

01011000 01011001 11101101 
01110010 10110010 01001001 
01111101 01111111 11010100 

01000000 00000110 01101010 
11110100 00011100 01100100 
10111000 11011111 11001010 


00011010 11000111 01010001 
11111011 10100101 01101110 
10000010 00001011 01001001 

10011100 01101001 10100011 
00100010 10010001 10110011 
11101000 00001101 00101100 

01111000 11000001 00010010 
00110110 10110000 01111011 
01011001 11010010 00000111 

10011000 01110100 00011000 
11001000 11100110 01001010 
10001011 00001111 00000001 

00001001 10111000 10010011 
10011010 10101000 11111101 
00110010 00110011 10110101 

10101101 10000011 10001010 
10011010 00010110 00111011 
11001100 11001110 11110110 

01011000 01011001 11101101 
01110010 10110010 01001001 
01111101 01111111 11010100 

01000000 00000110 01101010 
11110100 00011100 01100100 
10111000 11011111 11001010 



00011010 11000111 01010001 
11111011 10100101 01101110 
10000010 00001011 01001001 

10011100 01101001 10100011 
00100010 10010001 10110011 
11101000 00001101 00101100 

01111000 11000001 00010010 
00110110 10110000 01111011 
01011001 11010010 00000111 

10011000 01110100 00011000 
11001000 11100110 01001010 
10001011 00001111 00000001 

00001001 10111000 10010011 
10011010 10101000 11111101 
00110010 00110011 10110101 

10101101 10000011 10001010 
10011010 00010110 00111011 
11001100 11001110 11110110 

01011000 01011001 11101101 
01110010 10110010 01001001 
01111101 01111111 11010100 

01000000 00000110 01101010 
11110100 00011100 01100100 
10111000 11011111 11001010 


00011010 11000111 01010001 
11111011 10100101 01101110 
10000010 00001011 01001001 

10011100 01101001 10100011 
00100010 10010001 10110011 
11101000 00001101 00101100 

01111000 11000001 00010010 
00110110 10110000 01111011 
01011001 11010010 00000111 

10011000 01110100 00011000 
11001000 11100110 01001010 
10001011 00001111 00000001 

00001001 10111000 10010011 
10011010 10101000 11111101 
00110010 00110011 10110101 

10101101 10000011 10001010 
10011010 00010110 00111011 
11001100 11001110 11110110 

01011000 01011001 11101101 
01110010 10110010 01001001 
01111101 01111111 11010100 

01000000 00000110 01101010 
11110100 00011100 01100100 
10111000 11011111 11001010 


00011010 11000111 01010001 
11111011 10100101 01101110 
10000010 00001011 01001001 

10011100 01101001 10100011 
00100010 10010001 10110011 
11101000 00001101 00101100 

01111000 11000001 00010010 
00110110 10110000 01111011 
01011001 11010010 00000111 

10011000 01110100 00011000 
11001000 11100110 01001010 
10001011 00001111 00000001 

00001001 10111000 10010011 
10011010 10101000 11111101 
00110010 00110011 10110101 

10101101 10000011 10001010 
10011010 00010110 00111011 
11001100 11001110 11110110 

01011000 01011001 11101101 
01110010 10110010 01001001 
01111101 01111111 11010100 

01000000 00000110 01101010 
11110100 00011100 01100100 
10111000 11011111 11001010 


00011010 11000111 01010001 
11111011 10100101 01101110 
10000010 00001011 01001001 

10011100 01101001 10100011 
00100010 10010001 10110011 
11101000 00001101 00101100 

01111000 11000001 00010010 
00110110 10110000 01111011 
01011001 11010010 00000111 

10011000 01110100 00011000 
11001000 11100110 01001010 
10001011 00001111 00000001 

00001001 10111000 10010011 
10011010 10101000 11111101 
00110010 00110011 10110101 

10101101 10000011 10001010 
10011010 00010110 00111011 
11001100 11001110 11110110 

01011000 01011001 11101101 
01110010 10110010 01001001 
01111101 01111111 11010100 

01000000 00000110 01101010 
11110100 00011100 01100100 
10111000 11011111 11001010 



00011010 11000111 01010001 
11111011 10100101 01101110 
10000010 00001011 01001001 

10011100 01101001 10100011 
00100010 10010001 10110011 
11101000 00001101 00101100 

01111000 11000001 00010010 
00110110 10110000 01111011 
01011001 11010010 00000111 

10011000 01110100 00011000 
11001000 11100110 01001010 
10001011 00001111 00000001 

00001001 10111000 10010011 
10011010 10101000 11111101 
00110010 00110011 10110101 

10101101 10000011 10001010 
10011010 00010110 00111011 
11001100 11001110 11110110 

01011000 01011001 11101101 
01110010 10110010 01001001 
01111101 01111111 11010100 

01000000 00000110 01101010 
11110100 00011100 01100100 
10111000 11011111 11001010 


00011010 11000111 01010001 
11111011 10100101 01101110 
10000010 00001011 01001001 

10011100 01101001 10100011 
00100010 10010001 10110011 
11101000 00001101 00101100 

01111000 11000001 00010010 
00110110 10110000 01111011 
01011001 11010010 00000111 

10011000 01110100 00011000 
11001000 11100110 01001010 
10001011 00001111 00000001 

00001001 10111000 10010011 
10011010 10101000 11111101 
00110010 00110011 10110101 

10101101 10000011 10001010 
10011010 00010110 00111011 
11001100 11001110 11110110 

01011000 01011001 11101101 
01110010 10110010 01001001 
01111101 01111111 11010100 

01000000 00000110 01101010 
11110100 00011100 01100100 
10111000 11011111 11001010 


00011010 11000111 01010001 
11111011 10100101 01101110 
10000010 00001011 01001001 

10011100 01101001 10100011 
00100010 10010001 10110011 
11101000 00001101 00101100 

01111000 11000001 00010010 
00110110 10110000 01111011 
01011001 11010010 00000111 

10011000 01110100 00011000 
11001000 11100110 01001010 
10001011 00001111 00000001 

00001001 10111000 10010011 
10011010 10101000 11111101 
00110010 00110011 10110101 

10101101 10000011 10001010 
10011010 00010110 00111011 
11001100 11001110 11110110 

01011000 01011001 11101101 
01110010 10110010 01001001 
01111101 01111111 11010100 

01000000 00000110 01101010 
11110100 00011100 01100100 
10111000 11011111 11001010 


00011010 11000111 01010001 
11111011 10100101 01101110 
10000010 00001011 01001001 

10011100 01101001 10100011 
00100010 10010001 10110011 
11101000 00001101 00101100 

01111000 11000001 00010010 
00110110 10110000 01111011 
01011001 11010010 00000111 

10011000 01110100 00011000 
11001000 11100110 01001010 
10001011 00001111 00000001 

00001001 10111000 10010011 
10011010 10101000 11111101 
00110010 00110011 10110101 

10101101 10000011 10001010 
10011010 00010110 00111011 
11001100 11001110 11110110 

01011000 01011001 11101101 
01110010 10110010 01001001 
01111101 01111111 11010100 

01000000 00000110 01101010 
11110100 00011100 01100100 
10111000 11011111 11001010 



00011010 11000111 01010001 
11111011 10100101 01101110 
10000010 00001011 01001001 

10011100 01101001 10100011 
00100010 10010001 10110011 
11101000 00001101 00101100 

01111000 11000001 00010010 
00110110 10110000 01111011 
01011001 11010010 00000111 

10011000 01110100 00011000 
11001000 11100110 01001010 
10001011 00001111 00000001 

00001001 10111000 10010011 
10011010 10101000 11111101 
00110010 00110011 10110101 

10101101 10000011 10001010 
10011010 00010110 00111011 
11001100 11001110 11110110 

01011000 01011001 11101101 
01110010 10110010 01001001 
01111101 01111111 11010100 

01000000 00000110 01101010 
11110100 00011100 01100100 
10111000 11011111 11001010 


00011010 11000111 01010001 
11111011 10100101 01101110 
10000010 00001011 01001001 

10011100 01101001 10100011 
00100010 10010001 10110011 
11101000 00001101 00101100 

01111000 11000001 00010010 
00110110 10110000 01111011 
01011001 11010010 00000111 

10011000 01110100 00011000 
11001000 11100110 01001010 
10001011 00001111 00000001 

00001001 10111000 10010011 
10011010 10101000 11111101 
00110010 00110011 10110101 

10101101 10000011 10001010 
10011010 00010110 00111011 
11001100 11001110 11110110 

01011000 01011001 11101101 
01110010 10110010 01001001 
01111101 01111111 11010100 

01000000 00000110 01101010 
11110100 00011100 01100100 
10111000 11011111 11001010 


00011010 11000111 01010001 
11111011 10100101 01101110 
10000010 00001011 01001001 

10011100 01101001 10100011 
00100010 10010001 10110011 
11101000 00001101 00101100 

01111000 11000001 00010010 
00110110 10110000 01111011 
01011001 11010010 00000111 

10011000 01110100 00011000 
11001000 11100110 01001010 
10001011 00001111 00000001 

00001001 10111000 10010011 
10011010 10101000 11111101 
00110010 00110011 10110101 

10101101 10000011 10001010 
10011010 00010110 00111011 
11001100 11001110 11110110 

01011000 01011001 11101101 
01110010 10110010 01001001 
01111101 01111111 11010100 

01000000 00000110 01101010 
11110100 00011100 01100100 
10111000 11011111 11001010 


00011010 11000111 01010001 
11111011 10100101 01101110 
10000010 00001011 01001001 

10011100 01101001 10100011 
00100010 10010001 10110011 
11101000 00001101 00101100 

01111000 11000001 00010010 
00110110 10110000 01111011 
01011001 11010010 00000111 

10011000 01110100 00011000 
11001000 11100110 01001010 
10001011 00001111 00000001 

00001001 10111000 10010011 
10011010 10101000 11111101 
00110010 00110011 10110101 

10101101 10000011 10001010 
10011010 00010110 00111011 
11001100 11001110 11110110 

01011000 01011001 11101101 
01110010 10110010 01001001 
01111101 01111111 11010100 

01000000 00000110 01101010 
11110100 00011100 01100100 
10111000 11011111 11001010 



00011010 11000111 01010001 
11111011 10100101 01101110 
10000010 00001011 01001001 

10011100 01101001 10100011 
00100010 10010001 10110011 
11101000 00001101 00101100 

01111000 11000001 00010010 
00110110 10110000 01111011 
01011001 11010010 00000111 

10011000 01110100 00011000 
11001000 11100110 01001010 
10001011 00001111 00000001 

00001001 10111000 10010011 
10011010 10101000 11111101 
00110010 00110011 10110101 

10101101 10000011 10001010 
10011010 00010110 00111011 
11001100 11001110 11110110 

01011000 01011001 11101101 
01110010 10110010 01001001 
01111101 01111111 11010100 

01000000 00000110 01101010 
11110100 00011100 01100100 
10111000 11011111 11001010 


00011010 11000111 01010001 
11111011 10100101 01101110 
10000010 00001011 01001001 

10011100 01101001 10100011 
00100010 10010001 10110011 
11101000 00001101 00101100 

01111000 11000001 00010010 
00110110 10110000 01111011 
01011001 11010010 00000111 

10011000 01110100 00011000 
11001000 11100110 01001010 
10001011 00001111 00000001 

00001001 10111000 10010011 
10011010 10101000 11111101 
00110010 00110011 10110101 

10101101 10000011 10001010 
10011010 00010110 00111011 
11001100 11001110 11110110 

01011000 01011001 11101101 
01110010 10110010 01001001 
01111101 01111111 11010100 

01000000 00000110 01101010 
11110100 00011100 01100100 
10111000 11011111 11001010 


00011010 11000111 01010001 
11111011 10100101 01101110 
10000010 00001011 01001001 

10011100 01101001 10100011 
00100010 10010001 10110011 
11101000 00001101 00101100 

01111000 11000001 00010010 
00110110 10110000 01111011 
01011001 11010010 00000111 

10011000 01110100 00011000 
11001000 11100110 01001010 
10001011 00001111 00000001 

00001001 10111000 10010011 
10011010 10101000 11111101 
00110010 00110011 10110101 

10101101 10000011 10001010 
10011010 00010110 00111011 
11001100 11001110 11110110 

01011000 01011001 11101101 
01110010 10110010 01001001 
01111101 01111111 11010100 

01000000 00000110 01101010 
11110100 00011100 01100100 
10111000 11011111 11001010 


00011010 11000111 01010001 
11111011 10100101 01101110 
10000010 00001011 01001001 

10011100 01101001 10100011 
00100010 10010001 10110011 
11101000 00001101 00101100 

01111000 11000001 00010010 
00110110 10110000 01111011 
01011001 11010010 00000111 

10011000 01110100 00011000 
11001000 11100110 01001010 
10001011 00001111 00000001 

00001001 10111000 10010011 
10011010 10101000 11111101 
00110010 00110011 10110101 

10101101 10000011 10001010 
10011010 00010110 00111011 
11001100 11001110 11110110 

01011000 01011001 11101101 
01110010 10110010 01001001 
01111101 01111111 11010100 

01000000 00000110 01101010 
11110100 00011100 01100100 
10111000 11011111 11001010 



00011010 11000111 01010001 
11111011 10100101 01101110 
10000010 00001011 01001001 

10011100 01101001 10100011 
00100010 10010001 10110011 
11101000 00001101 00101100 

01111000 11000001 00010010 
00110110 10110000 01111011 
01011001 11010010 00000111 

10011000 01110100 00011000 
11001000 11100110 01001010 
10001011 00001111 00000001 

00001001 10111000 10010011 
10011010 10101000 11111101 
00110010 00110011 10110101 

10101101 10000011 10001010 
10011010 00010110 00111011 
11001100 11001110 11110110 

01011000 01011001 11101101 
01110010 10110010 01001001 
01111101 01111111 11010100 

01000000 00000110 01101010 
11110100 00011100 01100100 
10111000 11011111 11001010 


00011010 11000111 01010001 
11111011 10100101 01101110 
10000010 00001011 01001001 

10011100 01101001 10100011 
00100010 10010001 10110011 
11101000 00001101 00101100 

01111000 11000001 00010010 
00110110 10110000 01111011 
01011001 11010010 00000111 

10011000 01110100 00011000 
11001000 11100110 01001010 
10001011 00001111 00000001 

00001001 10111000 10010011 
10011010 10101000 11111101 
00110010 00110011 10110101 

10101101 10000011 10001010 
10011010 00010110 00111011 
11001100 11001110 11110110 

01011000 01011001 11101101 
01110010 10110010 01001001 
01111101 01111111 11010100 

01000000 00000110 01101010 
11110100 00011100 01100100 
10111000 11011111 11001010 


00011010 11000111 01010001 
11111011 10100101 01101110 
10000010 00001011 01001001 

10011100 01101001 10100011 
00100010 10010001 10110011 
11101000 00001101 00101100 

01111000 11000001 00010010 
00110110 10110000 01111011 
01011001 11010010 00000111 

10011000 01110100 00011000 
11001000 11100110 01001010 
10001011 00001111 00000001 

00001001 10111000 10010011 
10011010 10101000 11111101 
00110010 00110011 10110101 

10101101 10000011 10001010 
10011010 00010110 00111011 
11001100 11001110 11110110 

01011000 01011001 11101101 
01110010 10110010 01001001 
01111101 01111111 11010100 

01000000 00000110 01101010 
11110100 00011100 01100100 
10111000 11011111 11001010 


00011010 11000111 01010001 
11111011 10100101 01101110 
10000010 00001011 01001001 

10011100 01101001 10100011 
00100010 10010001 10110011 
11101000 00001101 00101100 

01111000 11000001 00010010 
00110110 10110000 01111011 
01011001 11010010 00000111 

10011000 01110100 00011000 
11001000 11100110 01001010 
10001011 00001111 00000001 

00001001 10111000 10010011 
10011010 10101000 11111101 
00110010 00110011 10110101 

10101101 10000011 10001010 
10011010 00010110 00111011 
11001100 11001110 11110110 

01011000 01011001 11101101 
01110010 10110010 01001001 
01111101 01111111 11010100 

01000000 00000110 01101010 
11110100 00011100 01100100 
10111000 11011111 11001010 



00011010 11000111 01010001 
11111011 10100101 01101110 
10000010 00001011 01001001 

10011100 01101001 10100011 
00100010 10010001 10110011 
11101000 00001101 00101100 

01111000 11000001 00010010 
00110110 10110000 01111011 
01011001 11010010 00000111 

10011000 01110100 00011000 
11001000 11100110 01001010 
10001011 00001111 00000001 

00001001 10111000 10010011 
10011010 10101000 11111101 
00110010 00110011 10110101 

10101101 10000011 10001010 
10011010 00010110 00111011 
11001100 11001110 11110110 

01011000 01011001 11101101 
01110010 10110010 01001001 
01111101 01111111 11010100 

01000000 00000110 01101010 
11110100 00011100 01100100 
10111000 11011111 11001010 


00011010 11000111 01010001 
11111011 10100101 01101110 
10000010 00001011 01001001 

10011100 01101001 10100011 
00100010 10010001 10110011 
11101000 00001101 00101100 

01111000 11000001 00010010 
00110110 10110000 01111011 
01011001 11010010 00000111 

10011000 01110100 00011000 
11001000 11100110 01001010 
10001011 00001111 00000001 

00001001 10111000 10010011 
10011010 10101000 11111101 
00110010 00110011 10110101 

10101101 10000011 10001010 
10011010 00010110 00111011 
11001100 11001110 11110110 

01011000 01011001 11101101 
01110010 10110010 01001001 
01111101 01111111 11010100 

01000000 00000110 01101010 
11110100 00011100 01100100 
10111000 11011111 11001010 


00011010 11000111 01010001 
11111011 10100101 01101110 
10000010 00001011 01001001 

10011100 01101001 10100011 
00100010 10010001 10110011 
11101000 00001101 00101100 

01111000 11000001 00010010 
00110110 10110000 01111011 
01011001 11010010 00000111 

10011000 01110100 00011000 
11001000 11100110 01001010 
10001011 00001111 00000001 

00001001 10111000 10010011 
10011010 10101000 11111101 
00110010 00110011 10110101 

10101101 10000011 10001010 
10011010 00010110 00111011 
11001100 11001110 11110110 

01011000 01011001 11101101 
01110010 10110010 01001001 
01111101 01111111 11010100 

01000000 00000110 01101010 
11110100 00011100 01100100 
10111000 11011111 11001010 


00011010 11000111 01010001 
11111011 10100101 01101110 
10000010 00001011 01001001 

10011100 01101001 10100011 
00100010 10010001 10110011 
11101000 00001101 00101100 

01111000 11000001 00010010 
00110110 10110000 01111011 
01011001 11010010 00000111 

10011000 01110100 00011000 
11001000 11100110 01001010 
10001011 00001111 00000001 

00001001 10111000 10010011 
10011010 10101000 11111101 
00110010 00110011 10110101 

10101101 10000011 10001010 
10011010 00010110 00111011 
11001100 11001110 11110110 

01011000 01011001 11101101 
01110010 10110010 01001001 
01111101 01111111 11010100 

01000000 00000110 01101010 
11110100 00011100 01100100 
10111000 11011111 11001010 



00011010 11000111 01010001 
11111011 10100101 01101110 
10000010 00001011 01001001 

10011100 01101001 10100011 
00100010 10010001 10110011 
11101000 00001101 00101100 

01111000 11000001 00010010 
00110110 10110000 01111011 
01011001 11010010 00000111 

10011000 01110100 00011000 
11001000 11100110 01001010 
10001011 00001111 00000001 

00001001 10111000 10010011 
10011010 10101000 11111101 
00110010 00110011 10110101 

10101101 10000011 10001010 
10011010 00010110 00111011 
11001100 11001110 11110110 

01011000 01011001 11101101 
01110010 10110010 01001001 
01111101 01111111 11010100 

01000000 00000110 01101010 
11110100 00011100 01100100 
10111000 11011111 11001010 


00011010 11000111 01010001 
11111011 10100101 01101110 
10000010 00001011 01001001 

10011100 01101001 10100011 
00100010 10010001 10110011 
11101000 00001101 00101100 

01111000 11000001 00010010 
00110110 10110000 01111011 
01011001 11010010 00000111 

10011000 01110100 00011000 
11001000 11100110 01001010 
10001011 00001111 00000001 

00001001 10111000 10010011 
10011010 10101000 11111101 
00110010 00110011 10110101 

10101101 10000011 10001010 
10011010 00010110 00111011 
11001100 11001110 11110110 

01011000 01011001 11101101 
01110010 10110010 01001001 
01111101 01111111 11010100 

01000000 00000110 01101010 
11110100 00011100 01100100 
10111000 11011111 11001010 


00011010 11000111 01010001 
11111011 10100101 01101110 
10000010 00001011 01001001 

10011100 01101001 10100011 
00100010 10010001 10110011 
11101000 00001101 00101100 

01111000 11000001 00010010 
00110110 10110000 01111011 
01011001 11010010 00000111 

10011000 01110100 00011000 
11001000 11100110 01001010 
10001011 00001111 00000001 

00001001 10111000 10010011 
10011010 10101000 11111101 
00110010 00110011 10110101 

10101101 10000011 10001010 
10011010 00010110 00111011 
11001100 11001110 11110110 

01011000 01011001 11101101 
01110010 10110010 01001001 
01111101 01111111 11010100 

01000000 00000110 01101010 
11110100 00011100 01100100 
10111000 11011111 11001010 


00011010 11000111 01010001 
11111011 10100101 01101110 
10000010 00001011 01001001 

10011100 01101001 10100011 
00100010 10010001 10110011 
11101000 00001101 00101100 

01111000 11000001 00010010 
00110110 10110000 01111011 
01011001 11010010 00000111 

10011000 01110100 00011000 
11001000 11100110 01001010 
10001011 00001111 00000001 

00001001 10111000 10010011 
10011010 10101000 11111101 
00110010 00110011 10110101 

10101101 10000011 10001010 
10011010 00010110 00111011 
11001100 11001110 11110110 

01011000 01011001 11101101 
01110010 10110010 01001001 
01111101 01111111 11010100 

01000000 00000110 01101010 
11110100 00011100 01100100 
10111000 11011111 11001010 



00011010 11000111 01010001 
11111011 10100101 01101110 
10000010 00001011 01001001 

10011100 01101001 10100011 
00100010 10010001 10110011 
11101000 00001101 00101100 

01111000 11000001 00010010 
00110110 10110000 01111011 
01011001 11010010 00000111 

10011000 01110100 00011000 
11001000 11100110 01001010 
10001011 00001111 00000001 

00001001 10111000 10010011 
10011010 10101000 11111101 
00110010 00110011 10110101 

10101101 10000011 10001010 
10011010 00010110 00111011 
11001100 11001110 11110110 

01011000 01011001 11101101 
01110010 10110010 01001001 
01111101 01111111 11010100 

01000000 00000110 01101010 
11110100 00011100 01100100 
10111000 11011111 11001010 


00011010 11000111 01010001 
11111011 10100101 01101110 
10000010 00001011 01001001 

10011100 01101001 10100011 
00100010 10010001 10110011 
11101000 00001101 00101100 

01111000 11000001 00010010 
00110110 10110000 01111011 
01011001 11010010 00000111 

10011000 01110100 00011000 
11001000 11100110 01001010 
10001011 00001111 00000001 

00001001 10111000 10010011 
10011010 10101000 11111101 
00110010 00110011 10110101 

10101101 10000011 10001010 
10011010 00010110 00111011 
11001100 11001110 11110110 

01011000 01011001 11101101 
01110010 10110010 01001001 
01111101 01111111 11010100 

01000000 00000110 01101010 
11110100 00011100 01100100 
10111000 11011111 11001010 


00011010 11000111 01010001 
11111011 10100101 01101110 
10000010 00001011 01001001 

10011100 01101001 10100011 
00100010 10010001 10110011 
11101000 00001101 00101100 

01111000 11000001 00010010 
00110110 10110000 01111011 
01011001 11010010 00000111 

10011000 01110100 00011000 
11001000 11100110 01001010 
10001011 00001111 00000001 

00001001 10111000 10010011 
10011010 10101000 11111101 
00110010 00110011 10110101 

10101101 10000011 10001010 
10011010 00010110 00111011 
11001100 11001110 11110110 

01011000 01011001 11101101 
01110010 10110010 01001001 
01111101 01111111 11010100 

01000000 00000110 01101010 
11110100 00011100 01100100 
10111000 11011111 11001010 


00011010 11000111 01010001 
11111011 10100101 01101110 
10000010 00001011 01001001 

10011100 01101001 10100011 
00100010 10010001 10110011 
11101000 00001101 00101100 

01111000 11000001 00010010 
00110110 10110000 01111011 
01011001 11010010 00000111 

10011000 01110100 00011000 
11001000 11100110 01001010 
10001011 00001111 00000001 

00001001 10111000 10010011 
10011010 10101000 11111101 
00110010 00110011 10110101 

10101101 10000011 10001010 
10011010 00010110 00111011 
11001100 11001110 11110110 

01011000 01011001 11101101 
01110010 10110010 01001001 
01111101 01111111 11010100 

01000000 00000110 01101010 
11110100 00011100 01100100 
10111000 11011111 11001010 



00011010 11000111 01010001 
11111011 10100101 01101110 
10000010 00001011 01001001 

10011100 01101001 10100011 
00100010 10010001 10110011 
11101000 00001101 00101100 

01111000 11000001 00010010 
00110110 10110000 01111011 
01011001 11010010 00000111 

10011000 01110100 00011000 
11001000 11100110 01001010 
10001011 00001111 00000001 

00001001 10111000 10010011 
10011010 10101000 11111101 
00110010 00110011 10110101 

10101101 10000011 10001010 
10011010 00010110 00111011 
11001100 11001110 11110110 

01011000 01011001 11101101 
01110010 10110010 01001001 
01111101 01111111 11010100 

01000000 00000110 01101010 
11110100 00011100 01100100 
10111000 11011111 11001010 


00011010 11000111 01010001 
11111011 10100101 01101110 
10000010 00001011 01001001 

10011100 01101001 10100011 
00100010 10010001 10110011 
11101000 00001101 00101100 

01111000 11000001 00010010 
00110110 10110000 01111011 
01011001 11010010 00000111 

10011000 01110100 00011000 
11001000 11100110 01001010 
10001011 00001111 00000001 

00001001 10111000 10010011 
10011010 10101000 11111101 
00110010 00110011 10110101 

10101101 10000011 10001010 
10011010 00010110 00111011 
11001100 11001110 11110110 

01011000 01011001 11101101 
01110010 10110010 01001001 
01111101 01111111 11010100 

01000000 00000110 01101010 
11110100 00011100 01100100 
10111000 11011111 11001010 


00011010 11000111 01010001 
11111011 10100101 01101110 
10000010 00001011 01001001 

10011100 01101001 10100011 
00100010 10010001 10110011 
11101000 00001101 00101100 

01111000 11000001 00010010 
00110110 10110000 01111011 
01011001 11010010 00000111 

10011000 01110100 00011000 
11001000 11100110 01001010 
10001011 00001111 00000001 

00001001 10111000 10010011 
10011010 10101000 11111101 
00110010 00110011 10110101 

10101101 10000011 10001010 
10011010 00010110 00111011 
11001100 11001110 11110110 

01011000 01011001 11101101 
01110010 10110010 01001001 
01111101 01111111 11010100 

01000000 00000110 01101010 
11110100 00011100 01100100 
10111000 11011111 11001010 


00011010 11000111 01010001 
11111011 10100101 01101110 
10000010 00001011 01001001 

10011100 01101001 10100011 
00100010 10010001 10110011 
11101000 00001101 00101100 

01111000 11000001 00010010 
00110110 10110000 01111011 
01011001 11010010 00000111 

10011000 01110100 00011000 
11001000 11100110 01001010 
10001011 00001111 00000001 

00001001 10111000 10010011 
10011010 10101000 11111101 
00110010 00110011 10110101 

10101101 10000011 10001010 
10011010 00010110 00111011 
11001100 11001110 11110110 

01011000 01011001 11101101 
01110010 10110010 01001001 
01111101 01111111 11010100 

01000000 00000110 01101010 
11110100 00011100 01100100 
10111000 11011111 11001010 



00011010 11000111 01010001 
11111011 10100101 01101110 
10000010 00001011 01001001 

10011100 01101001 10100011 
00100010 10010001 10110011 
11101000 00001101 00101100 

01111000 11000001 00010010 
00110110 10110000 01111011 
01011001 11010010 00000111 

10011000 01110100 00011000 
11001000 11100110 01001010 
10001011 00001111 00000001 

00001001 10111000 10010011 
10011010 10101000 11111101 
00110010 00110011 10110101 

10101101 10000011 10001010 
10011010 00010110 00111011 
11001100 11001110 11110110 

01011000 01011001 11101101 
01110010 10110010 01001001 
01111101 01111111 11010100 

01000000 00000110 01101010 
11110100 00011100 01100100 
10111000 11011111 11001010 


00011010 11000111 01010001 
11111011 10100101 01101110 
10000010 00001011 01001001 

10011100 01101001 10100011 
00100010 10010001 10110011 
11101000 00001101 00101100 

01111000 11000001 00010010 
00110110 10110000 01111011 
01011001 11010010 00000111 

10011000 01110100 00011000 
11001000 11100110 01001010 
10001011 00001111 00000001 

00001001 10111000 10010011 
10011010 10101000 11111101 
00110010 00110011 10110101 

10101101 10000011 10001010 
10011010 00010110 00111011 
11001100 11001110 11110110 

01011000 01011001 11101101 
01110010 10110010 01001001 
01111101 01111111 11010100 

01000000 00000110 01101010 
11110100 00011100 01100100 
10111000 11011111 11001010 


00011010 11000111 01010001 
11111011 10100101 01101110 
10000010 00001011 01001001 

10011100 01101001 10100011 
00100010 10010001 10110011 
11101000 00001101 00101100 

01111000 11000001 00010010 
00110110 10110000 01111011 
01011001 11010010 00000111 

10011000 01110100 00011000 
11001000 11100110 01001010 
10001011 00001111 00000001 

00001001 10111000 10010011 
10011010 10101000 11111101 
00110010 00110011 10110101 

10101101 10000011 10001010 
10011010 00010110 00111011 
11001100 11001110 11110110 

01011000 01011001 11101101 
01110010 10110010 01001001 
01111101 01111111 11010100 

01000000 00000110 01101010 
11110100 00011100 01100100 
10111000 11011111 11001010 


00011010 11000111 01010001 
11111011 10100101 01101110 
10000010 00001011 01001001 

10011100 01101001 10100011 
00100010 10010001 10110011 
11101000 00001101 00101100 

01111000 11000001 00010010 
00110110 10110000 01111011 
01011001 11010010 00000111 

10011000 01110100 00011000 
11001000 11100110 01001010 
10001011 00001111 00000001 

00001001 10111000 10010011 
10011010 10101000 11111101 
00110010 00110011 10110101 

10101101 10000011 10001010 
10011010 00010110 00111011 
11001100 11001110 11110110 

01011000 01011001 11101101 
01110010 10110010 01001001 
01111101 01111111 11010100 

01000000 00000110 01101010 
11110100 00011100 01100100 
10111000 11011111 11001010 



00011010 11000111 01010001 
11111011 10100101 01101110 
10000010 00001011 01001001 

10011100 01101001 10100011 
00100010 10010001 10110011 
11101000 00001101 00101100 

01111000 11000001 00010010 
00110110 10110000 01111011 
01011001 11010010 00000111 

10011000 01110100 00011000 
11001000 11100110 01001010 
10001011 00001111 00000001 

00001001 10111000 10010011 
10011010 10101000 11111101 
00110010 00110011 10110101 

10101101 10000011 10001010 
10011010 00010110 00111011 
11001100 11001110 11110110 

01011000 01011001 11101101 
01110010 10110010 01001001 
01111101 01111111 11010100 

01000000 00000110 01101010 
11110100 00011100 01100100 
10111000 11011111 11001010 


00011010 11000111 01010001 
11111011 10100101 01101110 
10000010 00001011 01001001 

10011100 01101001 10100011 
00100010 10010001 10110011 
11101000 00001101 00101100 

01111000 11000001 00010010 
00110110 10110000 01111011 
01011001 11010010 00000111 

10011000 01110100 00011000 
11001000 11100110 01001010 
10001011 00001111 00000001 

00001001 10111000 10010011 
10011010 10101000 11111101 
00110010 00110011 10110101 

10101101 10000011 10001010 
10011010 00010110 00111011 
11001100 11001110 11110110 

01011000 01011001 11101101 
01110010 10110010 01001001 
01111101 01111111 11010100 

01000000 00000110 01101010 
11110100 00011100 01100100 
10111000 11011111 11001010 


00011010 11000111 01010001 
11111011 10100101 01101110 
10000010 00001011 01001001 

10011100 01101001 10100011 
00100010 10010001 10110011 
11101000 00001101 00101100 

01111000 11000001 00010010 
00110110 10110000 01111011 
01011001 11010010 00000111 

10011000 01110100 00011000 
11001000 11100110 01001010 
10001011 00001111 00000001 

00001001 10111000 10010011 
10011010 10101000 11111101 
00110010 00110011 10110101 

10101101 10000011 10001010 
10011010 00010110 00111011 
11001100 11001110 11110110 

01011000 01011001 11101101 
01110010 10110010 01001001 
01111101 01111111 11010100 

01000000 00000110 01101010 
11110100 00011100 01100100 
10111000 11011111 11001010 


00011010 11000111 01010001 
11111011 10100101 01101110 
10000010 00001011 01001001 

10011100 01101001 10100011 
00100010 10010001 10110011 
11101000 00001101 00101100 

01111000 11000001 00010010 
00110110 10110000 01111011 
01011001 11010010 00000111 

10011000 01110100 00011000 
11001000 11100110 01001010 
10001011 00001111 00000001 

00001001 10111000 10010011 
10011010 10101000 11111101 
00110010 00110011 10110101 

10101101 10000011 10001010 
10011010 00010110 00111011 
11001100 11001110 11110110 

01011000 01011001 11101101 
01110010 10110010 01001001 
01111101 01111111 11010100 

01000000 00000110 01101010 
11110100 00011100 01100100 
10111000 11011111 11001010 



00011010 11000111 01010001 
11111011 10100101 01101110 
10000010 00001011 01001001 

10011100 01101001 10100011 
00100010 10010001 10110011 
11101000 00001101 00101100 

01111000 11000001 00010010 
00110110 10110000 01111011 
01011001 11010010 00000111 

10011000 01110100 00011000 
11001000 11100110 01001010 
10001011 00001111 00000001 

00001001 10111000 10010011 
10011010 10101000 11111101 
00110010 00110011 10110101 

10101101 10000011 10001010 
10011010 00010110 00111011 
11001100 11001110 11110110 

01011000 01011001 11101101 
01110010 10110010 01001001 
01111101 01111111 11010100 

01000000 00000110 01101010 
11110100 00011100 01100100 
10111000 11011111 11001010 


00011010 11000111 01010001 
11111011 10100101 01101110 
10000010 00001011 01001001 

10011100 01101001 10100011 
00100010 10010001 10110011 
11101000 00001101 00101100 

01111000 11000001 00010010 
00110110 10110000 01111011 
01011001 11010010 00000111 

10011000 01110100 00011000 
11001000 11100110 01001010 
10001011 00001111 00000001 

00001001 10111000 10010011 
10011010 10101000 11111101 
00110010 00110011 10110101 

10101101 10000011 10001010 
10011010 00010110 00111011 
11001100 11001110 11110110 

01011000 01011001 11101101 
01110010 10110010 01001001 
01111101 01111111 11010100 

01000000 00000110 01101010 
11110100 00011100 01100100 
10111000 11011111 11001010 


00011010 11000111 01010001 
11111011 10100101 01101110 
10000010 00001011 01001001 

10011100 01101001 10100011 
00100010 10010001 10110011 
11101000 00001101 00101100 

01111000 11000001 00010010 
00110110 10110000 01111011 
01011001 11010010 00000111 

10011000 01110100 00011000 
11001000 11100110 01001010 
10001011 00001111 00000001 

00001001 10111000 10010011 
10011010 10101000 11111101 
00110010 00110011 10110101 

10101101 10000011 10001010 
10011010 00010110 00111011 
11001100 11001110 11110110 

01011000 01011001 11101101 
01110010 10110010 01001001 
01111101 01111111 11010100 

01000000 00000110 01101010 
11110100 00011100 01100100 
10111000 11011111 11001010 


00011010 11000111 01010001 
11111011 10100101 01101110 
10000010 00001011 01001001 

10011100 01101001 10100011 
00100010 10010001 10110011 
11101000 00001101 00101100 

01111000 11000001 00010010 
00110110 10110000 01111011 
01011001 11010010 00000111 

10011000 01110100 00011000 
11001000 11100110 01001010 
10001011 00001111 00000001 

00001001 10111000 10010011 
10011010 10101000 11111101 
00110010 00110011 10110101 

10101101 10000011 10001010 
10011010 00010110 00111011 
11001100 11001110 11110110 

01011000 01011001 11101101 
01110010 10110010 01001001 
01111101 01111111 11010100 

01000000 00000110 01101010 
11110100 00011100 01100100 
10111000 11011111 11001010 




11110110 00100001 11100010 
11001100 01011001 00101111 
10110001 10101111 01011110 

10011011 11011001 11010110 
00001000 10000011 00010010 
01011100 10100101 01000000 

11110111 10100110 10001000 
01011101 01000010 00100010 
01011011 01010100 00010001 

11100110 01100001 01011100 
10010101 10110101 10101111 
10111010 01101000 11111010 

11110101 00101000 11100100 
11100011 01110000 00111101 
10010101 10100110 01110100 

11010111 10100111 00101000 
10101000 00011100 10010101 
01001100 01001010 11100001 

01011101 10111100 00011001 
11000000 11000100 00110010 
01011000 10011110 11110111 

00001111 00011100 00000100 
11011101 10101001 11110101 
01111011 11111000 01101100 


11110110 00100001 11100010 
11001100 01011001 00101111 
10110001 10101111 01011110 

10011011 11011001 11010110 
00001000 10000011 00010010 
01011100 10100101 01000000 

11110111 10100110 10001000 
01011101 01000010 00100010 
01011011 01010100 00010001 

11100110 01100001 01011100 
10010101 10110101 10101111 
10111010 01101000 11111010 

11110101 00101000 11100100 
11100011 01110000 00111101 
10010101 10100110 01110100 

11010111 10100111 00101000 
10101000 00011100 10010101 
01001100 01001010 11100001 

01011101 10111100 00011001 
11000000 11000100 00110010 
01011000 10011110 11110111 

00001111 00011100 00000100 
11011101 10101001 11110101 
01111011 11111000 01101100 


11110110 00100001 11100010 
11001100 01011001 00101111 
10110001 10101111 01011110 

10011011 11011001 11010110 
00001000 10000011 00010010 
01011100 10100101 01000000 

11110111 10100110 10001000 
01011101 01000010 00100010 
01011011 01010100 00010001 

11100110 01100001 01011100 
10010101 10110101 10101111 
10111010 01101000 11111010 

11110101 00101000 11100100 
11100011 01110000 00111101 
10010101 10100110 01110100 

11010111 10100111 00101000 
10101000 00011100 10010101 
01001100 01001010 11100001 

01011101 10111100 00011001 
11000000 11000100 00110010 
01011000 10011110 11110111 

00001111 00011100 00000100 
11011101 10101001 11110101 
01111011 11111000 01101100 


11110110 00100001 11100010 
11001100 01011001 00101111 
10110001 10101111 01011110 

10011011 11011001 11010110 
00001000 10000011 00010010 
01011100 10100101 01000000 

11110111 10100110 10001000 
01011101 01000010 00100010 
01011011 01010100 00010001 

11100110 01100001 01011100 
10010101 10110101 10101111 
10111010 01101000 11111010 

11110101 00101000 11100100 
11100011 01110000 00111101 
10010101 10100110 01110100 

11010111 10100111 00101000 
10101000 00011100 10010101 
01001100 01001010 11100001 

01011101 10111100 00011001 
11000000 11000100 00110010 
01011000 10011110 11110111 

00001111 00011100 00000100 
11011101 10101001 11110101 
01111011 11111000 01101100 



11110110 00100001 11100010 
11001100 01011001 00101111 
10110001 10101111 01011110 

10011011 11011001 11010110 
00001000 10000011 00010010 
01011100 10100101 01000000 

11110111 10100110 10001000 
01011101 01000010 00100010 
01011011 01010100 00010001 

11100110 01100001 01011100 
10010101 10110101 10101111 
10111010 01101000 11111010 

11110101 00101000 11100100 
11100011 01110000 00111101 
10010101 10100110 01110100 

11010111 10100111 00101000 
10101000 00011100 10010101 
01001100 01001010 11100001 

01011101 10111100 00011001 
11000000 11000100 00110010 
01011000 10011110 11110111 

00001111 00011100 00000100 
11011101 10101001 11110101 
01111011 11111000 01101100 


11110110 00100001 11100010 
11001100 01011001 00101111 
10110001 10101111 01011110 

10011011 11011001 11010110 
00001000 10000011 00010010 
01011100 10100101 01000000 

11110111 10100110 10001000 
01011101 01000010 00100010 
01011011 01010100 00010001 

11100110 01100001 01011100 
10010101 10110101 10101111 
10111010 01101000 11111010 

11110101 00101000 11100100 
11100011 01110000 00111101 
10010101 10100110 01110100 

11010111 10100111 00101000 
10101000 00011100 10010101 
01001100 01001010 11100001 

01011101 10111100 00011001 
11000000 11000100 00110010 
01011000 10011110 11110111 

00001111 00011100 00000100 
11011101 10101001 11110101 
01111011 11111000 01101100 


11110110 00100001 11100010 
11001100 01011001 00101111 
10110001 10101111 01011110 

10011011 11011001 11010110 
00001000 10000011 00010010 
01011100 10100101 01000000 

11110111 10100110 10001000 
01011101 01000010 00100010 
01011011 01010100 00010001 

11100110 01100001 01011100 
10010101 10110101 10101111 
10111010 01101000 11111010 

11110101 00101000 11100100 
11100011 01110000 00111101 
10010101 10100110 01110100 

11010111 10100111 00101000 
10101000 00011100 10010101 
01001100 01001010 11100001 

01011101 10111100 00011001 
11000000 11000100 00110010 
01011000 10011110 11110111 

00001111 00011100 00000100 
11011101 10101001 11110101 
01111011 11111000 01101100 


11110110 00100001 11100010 
11001100 01011001 00101111 
10110001 10101111 01011110 

10011011 11011001 11010110 
00001000 10000011 00010010 
01011100 10100101 01000000 

11110111 10100110 10001000 
01011101 01000010 00100010 
01011011 01010100 00010001 

11100110 01100001 01011100 
10010101 10110101 10101111 
10111010 01101000 11111010 

11110101 00101000 11100100 
11100011 01110000 00111101 
10010101 10100110 01110100 

11010111 10100111 00101000 
10101000 00011100 10010101 
01001100 01001010 11100001 

01011101 10111100 00011001 
11000000 11000100 00110010 
01011000 10011110 11110111 

00001111 00011100 00000100 
11011101 10101001 11110101 
01111011 11111000 01101100 



11110110 00100001 11100010 
11001100 01011001 00101111 
10110001 10101111 01011110 

10011011 11011001 11010110 
00001000 10000011 00010010 
01011100 10100101 01000000 

11110111 10100110 10001000 
01011101 01000010 00100010 
01011011 01010100 00010001 

11100110 01100001 01011100 
10010101 10110101 10101111 
10111010 01101000 11111010 

11110101 00101000 11100100 
11100011 01110000 00111101 
10010101 10100110 01110100 

11010111 10100111 00101000 
10101000 00011100 10010101 
01001100 01001010 11100001 

01011101 10111100 00011001 
11000000 11000100 00110010 
01011000 10011110 11110111 

00001111 00011100 00000100 
11011101 10101001 11110101 
01111011 11111000 01101100 


11110110 00100001 11100010 
11001100 01011001 00101111 
10110001 10101111 01011110 

10011011 11011001 11010110 
00001000 10000011 00010010 
01011100 10100101 01000000 

11110111 10100110 10001000 
01011101 01000010 00100010 
01011011 01010100 00010001 

11100110 01100001 01011100 
10010101 10110101 10101111 
10111010 01101000 11111010 

11110101 00101000 11100100 
11100011 01110000 00111101 
10010101 10100110 01110100 

11010111 10100111 00101000 
10101000 00011100 10010101 
01001100 01001010 11100001 

01011101 10111100 00011001 
11000000 11000100 00110010 
01011000 10011110 11110111 

00001111 00011100 00000100 
11011101 10101001 11110101 
01111011 11111000 01101100 


11110110 00100001 11100010 
11001100 01011001 00101111 
10110001 10101111 01011110 

10011011 11011001 11010110 
00001000 10000011 00010010 
01011100 10100101 01000000 

11110111 10100110 10001000 
01011101 01000010 00100010 
01011011 01010100 00010001 

11100110 01100001 01011100 
10010101 10110101 10101111 
10111010 01101000 11111010 

11110101 00101000 11100100 
11100011 01110000 00111101 
10010101 10100110 01110100 

11010111 10100111 00101000 
10101000 00011100 10010101 
01001100 01001010 11100001 

01011101 10111100 00011001 
11000000 11000100 00110010 
01011000 10011110 11110111 

00001111 00011100 00000100 
11011101 10101001 11110101 
01111011 11111000 01101100 


11110110 00100001 11100010 
11001100 01011001 00101111 
10110001 10101111 01011110 

10011011 11011001 11010110 
00001000 10000011 00010010 
01011100 10100101 01000000 

11110111 10100110 10001000 
01011101 01000010 00100010 
01011011 01010100 00010001 

11100110 01100001 01011100 
10010101 10110101 10101111 
10111010 01101000 11111010 

11110101 00101000 11100100 
11100011 01110000 00111101 
10010101 10100110 01110100 

11010111 10100111 00101000 
10101000 00011100 10010101 
01001100 01001010 11100001 

01011101 10111100 00011001 
11000000 11000100 00110010 
01011000 10011110 11110111 

00001111 00011100 00000100 
11011101 10101001 11110101 
01111011 11111000 01101100 



11110110 00100001 11100010 
11001100 01011001 00101111 
10110001 10101111 01011110 

10011011 11011001 11010110 
00001000 10000011 00010010 
01011100 10100101 01000000 

11110111 10100110 10001000 
01011101 01000010 00100010 
01011011 01010100 00010001 

11100110 01100001 01011100 
10010101 10110101 10101111 
10111010 01101000 11111010 

11110101 00101000 11100100 
11100011 01110000 00111101 
10010101 10100110 01110100 

11010111 10100111 00101000 
10101000 00011100 10010101 
01001100 01001010 11100001 

01011101 10111100 00011001 
11000000 11000100 00110010 
01011000 10011110 11110111 

00001111 00011100 00000100 
11011101 10101001 11110101 
01111011 11111000 01101100 


11110110 00100001 11100010 
11001100 01011001 00101111 
10110001 10101111 01011110 

10011011 11011001 11010110 
00001000 10000011 00010010 
01011100 10100101 01000000 

11110111 10100110 10001000 
01011101 01000010 00100010 
01011011 01010100 00010001 

11100110 01100001 01011100 
10010101 10110101 10101111 
10111010 01101000 11111010 

11110101 00101000 11100100 
11100011 01110000 00111101 
10010101 10100110 01110100 

11010111 10100111 00101000 
10101000 00011100 10010101 
01001100 01001010 11100001 

01011101 10111100 00011001 
11000000 11000100 00110010 
01011000 10011110 11110111 

00001111 00011100 00000100 
11011101 10101001 11110101 
01111011 11111000 01101100 


11110110 00100001 11100010 
11001100 01011001 00101111 
10110001 10101111 01011110 

10011011 11011001 11010110 
00001000 10000011 00010010 
01011100 10100101 01000000 

11110111 10100110 10001000 
01011101 01000010 00100010 
01011011 01010100 00010001 

11100110 01100001 01011100 
10010101 10110101 10101111 
10111010 01101000 11111010 

11110101 00101000 11100100 
11100011 01110000 00111101 
10010101 10100110 01110100 

11010111 10100111 00101000 
10101000 00011100 10010101 
01001100 01001010 11100001 

01011101 10111100 00011001 
11000000 11000100 00110010 
01011000 10011110 11110111 

00001111 00011100 00000100 
11011101 10101001 11110101 
01111011 11111000 01101100 


11110110 00100001 11100010 
11001100 01011001 00101111 
10110001 10101111 01011110 

10011011 11011001 11010110 
00001000 10000011 00010010 
01011100 10100101 01000000 

11110111 10100110 10001000 
01011101 01000010 00100010 
01011011 01010100 00010001 

11100110 01100001 01011100 
10010101 10110101 10101111 
10111010 01101000 11111010 

11110101 00101000 11100100 
11100011 01110000 00111101 
10010101 10100110 01110100 

11010111 10100111 00101000 
10101000 00011100 10010101 
01001100 01001010 11100001 

01011101 10111100 00011001 
11000000 11000100 00110010 
01011000 10011110 11110111 

00001111 00011100 00000100 
11011101 10101001 11110101 
01111011 11111000 01101100 



11110110 00100001 11100010 
11001100 01011001 00101111 
10110001 10101111 01011110 

10011011 11011001 11010110 
00001000 10000011 00010010 
01011100 10100101 01000000 

11110111 10100110 10001000 
01011101 01000010 00100010 
01011011 01010100 00010001 

11100110 01100001 01011100 
10010101 10110101 10101111 
10111010 01101000 11111010 

11110101 00101000 11100100 
11100011 01110000 00111101 
10010101 10100110 01110100 

11010111 10100111 00101000 
10101000 00011100 10010101 
01001100 01001010 11100001 

01011101 10111100 00011001 
11000000 11000100 00110010 
01011000 10011110 11110111 

00001111 00011100 00000100 
11011101 10101001 11110101 
01111011 11111000 01101100 


11110110 00100001 11100010 
11001100 01011001 00101111 
10110001 10101111 01011110 

10011011 11011001 11010110 
00001000 10000011 00010010 
01011100 10100101 01000000 

11110111 10100110 10001000 
01011101 01000010 00100010 
01011011 01010100 00010001 

11100110 01100001 01011100 
10010101 10110101 10101111 
10111010 01101000 11111010 

11110101 00101000 11100100 
11100011 01110000 00111101 
10010101 10100110 01110100 

11010111 10100111 00101000 
10101000 00011100 10010101 
01001100 01001010 11100001 

01011101 10111100 00011001 
11000000 11000100 00110010 
01011000 10011110 11110111 

00001111 00011100 00000100 
11011101 10101001 11110101 
01111011 11111000 01101100 


11110110 00100001 11100010 
11001100 01011001 00101111 
10110001 10101111 01011110 

10011011 11011001 11010110 
00001000 10000011 00010010 
01011100 10100101 01000000 

11110111 10100110 10001000 
01011101 01000010 00100010 
01011011 01010100 00010001 

11100110 01100001 01011100 
10010101 10110101 10101111 
10111010 01101000 11111010 

11110101 00101000 11100100 
11100011 01110000 00111101 
10010101 10100110 01110100 

11010111 10100111 00101000 
10101000 00011100 10010101 
01001100 01001010 11100001 

01011101 10111100 00011001 
11000000 11000100 00110010 
01011000 10011110 11110111 

00001111 00011100 00000100 
11011101 10101001 11110101 
01111011 11111000 01101100 


11110110 00100001 11100010 
11001100 01011001 00101111 
10110001 10101111 01011110 

10011011 11011001 11010110 
00001000 10000011 00010010 
01011100 10100101 01000000 

11110111 10100110 10001000 
01011101 01000010 00100010 
01011011 01010100 00010001 

11100110 01100001 01011100 
10010101 10110101 10101111 
10111010 01101000 11111010 

11110101 00101000 11100100 
11100011 01110000 00111101 
10010101 10100110 01110100 

11010111 10100111 00101000 
10101000 00011100 10010101 
01001100 01001010 11100001 

01011101 10111100 00011001 
11000000 11000100 00110010 
01011000 10011110 11110111 

00001111 00011100 00000100 
11011101 10101001 11110101 
01111011 11111000 01101100 



11110110 00100001 11100010 
11001100 01011001 00101111 
10110001 10101111 01011110 

10011011 11011001 11010110 
00001000 10000011 00010010 
01011100 10100101 01000000 

11110111 10100110 10001000 
01011101 01000010 00100010 
01011011 01010100 00010001 

11100110 01100001 01011100 
10010101 10110101 10101111 
10111010 01101000 11111010 

11110101 00101000 11100100 
11100011 01110000 00111101 
10010101 10100110 01110100 

11010111 10100111 00101000 
10101000 00011100 10010101 
01001100 01001010 11100001 

01011101 10111100 00011001 
11000000 11000100 00110010 
01011000 10011110 11110111 

00001111 00011100 00000100 
11011101 10101001 11110101 
01111011 11111000 01101100 


11110110 00100001 11100010 
11001100 01011001 00101111 
10110001 10101111 01011110 

10011011 11011001 11010110 
00001000 10000011 00010010 
01011100 10100101 01000000 

11110111 10100110 10001000 
01011101 01000010 00100010 
01011011 01010100 00010001 

11100110 01100001 01011100 
10010101 10110101 10101111 
10111010 01101000 11111010 

11110101 00101000 11100100 
11100011 01110000 00111101 
10010101 10100110 01110100 

11010111 10100111 00101000 
10101000 00011100 10010101 
01001100 01001010 11100001 

01011101 10111100 00011001 
11000000 11000100 00110010 
01011000 10011110 11110111 

00001111 00011100 00000100 
11011101 10101001 11110101 
01111011 11111000 01101100 


11110110 00100001 11100010 
11001100 01011001 00101111 
10110001 10101111 01011110 

10011011 11011001 11010110 
00001000 10000011 00010010 
01011100 10100101 01000000 

11110111 10100110 10001000 
01011101 01000010 00100010 
01011011 01010100 00010001 

11100110 01100001 01011100 
10010101 10110101 10101111 
10111010 01101000 11111010 

11110101 00101000 11100100 
11100011 01110000 00111101 
10010101 10100110 01110100 

11010111 10100111 00101000 
10101000 00011100 10010101 
01001100 01001010 11100001 

01011101 10111100 00011001 
11000000 11000100 00110010 
01011000 10011110 11110111 

00001111 00011100 00000100 
11011101 10101001 11110101 
01111011 11111000 01101100 


11110110 00100001 11100010 
11001100 01011001 00101111 
10110001 10101111 01011110 

10011011 11011001 11010110 
00001000 10000011 00010010 
01011100 10100101 01000000 

11110111 10100110 10001000 
01011101 01000010 00100010 
01011011 01010100 00010001 

11100110 01100001 01011100 
10010101 10110101 10101111 
10111010 01101000 11111010 

11110101 00101000 11100100 
11100011 01110000 00111101 
10010101 10100110 01110100 

11010111 10100111 00101000 
10101000 00011100 10010101 
01001100 01001010 11100001 

01011101 10111100 00011001 
11000000 11000100 00110010 
01011000 10011110 11110111 

00001111 00011100 00000100 
11011101 10101001 11110101 
01111011 11111000 01101100 



11110110 00100001 11100010 
11001100 01011001 00101111 
10110001 10101111 01011110 

10011011 11011001 11010110 
00001000 10000011 00010010 
01011100 10100101 01000000 

11110111 10100110 10001000 
01011101 01000010 00100010 
01011011 01010100 00010001 

11100110 01100001 01011100 
10010101 10110101 10101111 
10111010 01101000 11111010 

11110101 00101000 11100100 
11100011 01110000 00111101 
10010101 10100110 01110100 

11010111 10100111 00101000 
10101000 00011100 10010101 
01001100 01001010 11100001 

01011101 10111100 00011001 
11000000 11000100 00110010 
01011000 10011110 11110111 

00001111 00011100 00000100 
11011101 10101001 11110101 
01111011 11111000 01101100 


11110110 00100001 11100010 
11001100 01011001 00101111 
10110001 10101111 01011110 

10011011 11011001 11010110 
00001000 10000011 00010010 
01011100 10100101 01000000 

11110111 10100110 10001000 
01011101 01000010 00100010 
01011011 01010100 00010001 

11100110 01100001 01011100 
10010101 10110101 10101111 
10111010 01101000 11111010 

11110101 00101000 11100100 
11100011 01110000 00111101 
10010101 10100110 01110100 

11010111 10100111 00101000 
10101000 00011100 10010101 
01001100 01001010 11100001 

01011101 10111100 00011001 
11000000 11000100 00110010 
01011000 10011110 11110111 

00001111 00011100 00000100 
11011101 10101001 11110101 
01111011 11111000 01101100 


11110110 00100001 11100010 
11001100 01011001 00101111 
10110001 10101111 01011110 

10011011 11011001 11010110 
00001000 10000011 00010010 
01011100 10100101 01000000 

11110111 10100110 10001000 
01011101 01000010 00100010 
01011011 01010100 00010001 

11100110 01100001 01011100 
10010101 10110101 10101111 
10111010 01101000 11111010 

11110101 00101000 11100100 
11100011 01110000 00111101 
10010101 10100110 01110100 

11010111 10100111 00101000 
10101000 00011100 10010101 
01001100 01001010 11100001 

01011101 10111100 00011001 
11000000 11000100 00110010 
01011000 10011110 11110111 

00001111 00011100 00000100 
11011101 10101001 11110101 
01111011 11111000 01101100 


11110110 00100001 11100010 
11001100 01011001 00101111 
10110001 10101111 01011110 

10011011 11011001 11010110 
00001000 10000011 00010010 
01011100 10100101 01000000 

11110111 10100110 10001000 
01011101 01000010 00100010 
01011011 01010100 00010001 

11100110 01100001 01011100 
10010101 10110101 10101111 
10111010 01101000 11111010 

11110101 00101000 11100100 
11100011 01110000 00111101 
10010101 10100110 01110100 

11010111 10100111 00101000 
10101000 00011100 10010101 
01001100 01001010 11100001 

01011101 10111100 00011001 
11000000 11000100 00110010 
01011000 10011110 11110111 

00001111 00011100 00000100 
11011101 10101001 11110101 
01111011 11111000 01101100 



11110110 00100001 11100010 
11001100 01011001 00101111 
10110001 10101111 01011110 

10011011 11011001 11010110 
00001000 10000011 00010010 
01011100 10100101 01000000 

11110111 10100110 10001000 
01011101 01000010 00100010 
01011011 01010100 00010001 

11100110 01100001 01011100 
10010101 10110101 10101111 
10111010 01101000 11111010 

11110101 00101000 11100100 
11100011 01110000 00111101 
10010101 10100110 01110100 

11010111 10100111 00101000 
10101000 00011100 10010101 
01001100 01001010 11100001 

01011101 10111100 00011001 
11000000 11000100 00110010 
01011000 10011110 11110111 

00001111 00011100 00000100 
11011101 10101001 11110101 
01111011 11111000 01101100 


11110110 00100001 11100010 
11001100 01011001 00101111 
10110001 10101111 01011110 

10011011 11011001 11010110 
00001000 10000011 00010010 
01011100 10100101 01000000 

11110111 10100110 10001000 
01011101 01000010 00100010 
01011011 01010100 00010001 

11100110 01100001 01011100 
10010101 10110101 10101111 
10111010 01101000 11111010 

11110101 00101000 11100100 
11100011 01110000 00111101 
10010101 10100110 01110100 

11010111 10100111 00101000 
10101000 00011100 10010101 
01001100 01001010 11100001 

01011101 10111100 00011001 
11000000 11000100 00110010 
01011000 10011110 11110111 

00001111 00011100 00000100 
11011101 10101001 11110101 
01111011 11111000 01101100 


11110110 00100001 11100010 
11001100 01011001 00101111 
10110001 10101111 01011110 

10011011 11011001 11010110 
00001000 10000011 00010010 
01011100 10100101 01000000 

11110111 10100110 10001000 
01011101 01000010 00100010 
01011011 01010100 00010001 

11100110 01100001 01011100 
10010101 10110101 10101111 
10111010 01101000 11111010 

11110101 00101000 11100100 
11100011 01110000 00111101 
10010101 10100110 01110100 

11010111 10100111 00101000 
10101000 00011100 10010101 
01001100 01001010 11100001 

01011101 10111100 00011001 
11000000 11000100 00110010 
01011000 10011110 11110111 

00001111 00011100 00000100 
11011101 10101001 11110101 
01111011 11111000 01101100 


11110110 00100001 11100010 
11001100 01011001 00101111 
10110001 10101111 01011110 

10011011 11011001 11010110 
00001000 10000011 00010010 
01011100 10100101 01000000 

11110111 10100110 10001000 
01011101 01000010 00100010 
01011011 01010100 00010001 

11100110 01100001 01011100 
10010101 10110101 10101111 
10111010 01101000 11111010 

11110101 00101000 11100100 
11100011 01110000 00111101 
10010101 10100110 01110100 

11010111 10100111 00101000 
10101000 00011100 10010101 
01001100 01001010 11100001 

01011101 10111100 00011001 
11000000 11000100 00110010 
01011000 10011110 11110111 

00001111 00011100 00000100 
11011101 10101001 11110101 
01111011 11111000 01101100 



11110110 00100001 11100010 
11001100 01011001 00101111 
10110001 10101111 01011110 

10011011 11011001 11010110 
00001000 10000011 00010010 
01011100 10100101 01000000 

11110111 10100110 10001000 
01011101 01000010 00100010 
01011011 01010100 00010001 

11100110 01100001 01011100 
10010101 10110101 10101111 
10111010 01101000 11111010 

11110101 00101000 11100100 
11100011 01110000 00111101 
10010101 10100110 01110100 

11010111 10100111 00101000 
10101000 00011100 10010101 
01001100 01001010 11100001 

01011101 10111100 00011001 
11000000 11000100 00110010 
01011000 10011110 11110111 

00001111 00011100 00000100 
11011101 10101001 11110101 
01111011 11111000 01101100 


11110110 00100001 11100010 
11001100 01011001 00101111 
10110001 10101111 01011110 

10011011 11011001 11010110 
00001000 10000011 00010010 
01011100 10100101 01000000 

11110111 10100110 10001000 
01011101 01000010 00100010 
01011011 01010100 00010001 

11100110 01100001 01011100 
10010101 10110101 10101111 
10111010 01101000 11111010 

11110101 00101000 11100100 
11100011 01110000 00111101 
10010101 10100110 01110100 

11010111 10100111 00101000 
10101000 00011100 10010101 
01001100 01001010 11100001 

01011101 10111100 00011001 
11000000 11000100 00110010 
01011000 10011110 11110111 

00001111 00011100 00000100 
11011101 10101001 11110101 
01111011 11111000 01101100 


11110110 00100001 11100010 
11001100 01011001 00101111 
10110001 10101111 01011110 

10011011 11011001 11010110 
00001000 10000011 00010010 
01011100 10100101 01000000 

11110111 10100110 10001000 
01011101 01000010 00100010 
01011011 01010100 00010001 

11100110 01100001 01011100 
10010101 10110101 10101111 
10111010 01101000 11111010 

11110101 00101000 11100100 
11100011 01110000 00111101 
10010101 10100110 01110100 

11010111 10100111 00101000 
10101000 00011100 10010101 
01001100 01001010 11100001 

01011101 10111100 00011001 
11000000 11000100 00110010 
01011000 10011110 11110111 

00001111 00011100 00000100 
11011101 10101001 11110101 
01111011 11111000 01101100 


11110110 00100001 11100010 
11001100 01011001 00101111 
10110001 10101111 01011110 

10011011 11011001 11010110 
00001000 10000011 00010010 
01011100 10100101 01000000 

11110111 10100110 10001000 
01011101 01000010 00100010 
01011011 01010100 00010001 

11100110 01100001 01011100 
10010101 10110101 10101111 
10111010 01101000 11111010 

11110101 00101000 11100100 
11100011 01110000 00111101 
10010101 10100110 01110100 

11010111 10100111 00101000 
10101000 00011100 10010101 
01001100 01001010 11100001 

01011101 10111100 00011001 
11000000 11000100 00110010 
01011000 10011110 11110111 

00001111 00011100 00000100 
11011101 10101001 11110101 
01111011 11111000 01101100 



11110110 00100001 11100010 
11001100 01011001 00101111 
10110001 10101111 01011110 

10011011 11011001 11010110 
00001000 10000011 00010010 
01011100 10100101 01000000 

11110111 10100110 10001000 
01011101 01000010 00100010 
01011011 01010100 00010001 

11100110 01100001 01011100 
10010101 10110101 10101111 
10111010 01101000 11111010 

11110101 00101000 11100100 
11100011 01110000 00111101 
10010101 10100110 01110100 

11010111 10100111 00101000 
10101000 00011100 10010101 
01001100 01001010 11100001 

01011101 10111100 00011001 
11000000 11000100 00110010 
01011000 10011110 11110111 

00001111 00011100 00000100 
11011101 10101001 11110101 
01111011 11111000 01101100 


11110110 00100001 11100010 
11001100 01011001 00101111 
10110001 10101111 01011110 

10011011 11011001 11010110 
00001000 10000011 00010010 
01011100 10100101 01000000 

11110111 10100110 10001000 
01011101 01000010 00100010 
01011011 01010100 00010001 

11100110 01100001 01011100 
10010101 10110101 10101111 
10111010 01101000 11111010 

11110101 00101000 11100100 
11100011 01110000 00111101 
10010101 10100110 01110100 

11010111 10100111 00101000 
10101000 00011100 10010101 
01001100 01001010 11100001 

01011101 10111100 00011001 
11000000 11000100 00110010 
01011000 10011110 11110111 

00001111 00011100 00000100 
11011101 10101001 11110101 
01111011 11111000 01101100 


11110110 00100001 11100010 
11001100 01011001 00101111 
10110001 10101111 01011110 

10011011 11011001 11010110 
00001000 10000011 00010010 
01011100 10100101 01000000 

11110111 10100110 10001000 
01011101 01000010 00100010 
01011011 01010100 00010001 

11100110 01100001 01011100 
10010101 10110101 10101111 
10111010 01101000 11111010 

11110101 00101000 11100100 
11100011 01110000 00111101 
10010101 10100110 01110100 

11010111 10100111 00101000 
10101000 00011100 10010101 
01001100 01001010 11100001 

01011101 10111100 00011001 
11000000 11000100 00110010 
01011000 10011110 11110111 

00001111 00011100 00000100 
11011101 10101001 11110101 
01111011 11111000 01101100 


11110110 00100001 11100010 
11001100 01011001 00101111 
10110001 10101111 01011110 

10011011 11011001 11010110 
00001000 10000011 00010010 
01011100 10100101 01000000 

11110111 10100110 10001000 
01011101 01000010 00100010 
01011011 01010100 00010001 

11100110 01100001 01011100 
10010101 10110101 10101111 
10111010 01101000 11111010 

11110101 00101000 11100100 
11100011 01110000 00111101 
10010101 10100110 01110100 

11010111 10100111 00101000 
10101000 00011100 10010101 
01001100 01001010 11100001 

01011101 10111100 00011001 
11000000 11000100 00110010 
01011000 10011110 11110111 

00001111 00011100 00000100 
11011101 10101001 11110101 
01111011 11111000 01101100 



11110110 00100001 11100010 
11001100 01011001 00101111 
10110001 10101111 01011110 

10011011 11011001 11010110 
00001000 10000011 00010010 
01011100 10100101 01000000 

11110111 10100110 10001000 
01011101 01000010 00100010 
01011011 01010100 00010001 

11100110 01100001 01011100 
10010101 10110101 10101111 
10111010 01101000 11111010 

11110101 00101000 11100100 
11100011 01110000 00111101 
10010101 10100110 01110100 

11010111 10100111 00101000 
10101000 00011100 10010101 
01001100 01001010 11100001 

01011101 10111100 00011001 
11000000 11000100 00110010 
01011000 10011110 11110111 

00001111 00011100 00000100 
11011101 10101001 11110101 
01111011 11111000 01101100 


11110110 00100001 11100010 
11001100 01011001 00101111 
10110001 10101111 01011110 

10011011 11011001 11010110 
00001000 10000011 00010010 
01011100 10100101 01000000 

11110111 10100110 10001000 
01011101 01000010 00100010 
01011011 01010100 00010001 

11100110 01100001 01011100 
10010101 10110101 10101111 
10111010 01101000 11111010 

11110101 00101000 11100100 
11100011 01110000 00111101 
10010101 10100110 01110100 

11010111 10100111 00101000 
10101000 00011100 10010101 
01001100 01001010 11100001 

01011101 10111100 00011001 
11000000 11000100 00110010 
01011000 10011110 11110111 

00001111 00011100 00000100 
11011101 10101001 11110101 
01111011 11111000 01101100 


11110110 00100001 11100010 
11001100 01011001 00101111 
10110001 10101111 01011110 

10011011 11011001 11010110 
00001000 10000011 00010010 
01011100 10100101 01000000 

11110111 10100110 10001000 
01011101 01000010 00100010 
01011011 01010100 00010001 

11100110 01100001 01011100 
10010101 10110101 10101111 
10111010 01101000 11111010 

11110101 00101000 11100100 
11100011 01110000 00111101 
10010101 10100110 01110100 

11010111 10100111 00101000 
10101000 00011100 10010101 
01001100 01001010 11100001 

01011101 10111100 00011001 
11000000 11000100 00110010 
01011000 10011110 11110111 

00001111 00011100 00000100 
11011101 10101001 11110101 
01111011 11111000 01101100 


11110110 00100001 11100010 
11001100 01011001 00101111 
10110001 10101111 01011110 

10011011 11011001 11010110 
00001000 10000011 00010010 
01011100 10100101 01000000 

11110111 10100110 10001000 
01011101 01000010 00100010 
01011011 01010100 00010001 

11100110 01100001 01011100 
10010101 10110101 10101111 
10111010 01101000 11111010 

11110101 00101000 11100100 
11100011 01110000 00111101 
10010101 10100110 01110100 

11010111 10100111 00101000 
10101000 00011100 10010101 
01001100 01001010 11100001 

01011101 10111100 00011001 
11000000 11000100 00110010 
01011000 10011110 11110111 

00001111 00011100 00000100 
11011101 10101001 11110101 
01111011 11111000 01101100 



11110110 00100001 11100010 
11001100 01011001 00101111 
10110001 10101111 01011110 

10011011 11011001 11010110 
00001000 10000011 00010010 
01011100 10100101 01000000 

11110111 10100110 10001000 
01011101 01000010 00100010 
01011011 01010100 00010001 

11100110 01100001 01011100 
10010101 10110101 10101111 
10111010 01101000 11111010 

11110101 00101000 11100100 
11100011 01110000 00111101 
10010101 10100110 01110100 

11010111 10100111 00101000 
10101000 00011100 10010101 
01001100 01001010 11100001 

01011101 10111100 00011001 
11000000 11000100 00110010 
01011000 10011110 11110111 

00001111 00011100 00000100 
11011101 10101001 11110101 
01111011 11111000 01101100 


11110110 00100001 11100010 
11001100 01011001 00101111 
10110001 10101111 01011110 

10011011 11011001 11010110 
00001000 10000011 00010010 
01011100 10100101 01000000 

11110111 10100110 10001000 
01011101 01000010 00100010 
01011011 01010100 00010001 

11100110 01100001 01011100 
10010101 10110101 10101111 
10111010 01101000 11111010 

11110101 00101000 11100100 
11100011 01110000 00111101 
10010101 10100110 01110100 

11010111 10100111 00101000 
10101000 00011100 10010101 
01001100 01001010 11100001 

01011101 10111100 00011001 
11000000 11000100 00110010 
01011000 10011110 11110111 

00001111 00011100 00000100 
11011101 10101001 11110101 
01111011 11111000 01101100 


11110110 00100001 11100010 
11001100 01011001 00101111 
10110001 10101111 01011110 

10011011 11011001 11010110 
00001000 10000011 00010010 
01011100 10100101 01000000 

11110111 10100110 10001000 
01011101 01000010 00100010 
01011011 01010100 00010001 

11100110 01100001 01011100 
10010101 10110101 10101111 
10111010 01101000 11111010 

11110101 00101000 11100100 
11100011 01110000 00111101 
10010101 10100110 01110100 

11010111 10100111 00101000 
10101000 00011100 10010101 
01001100 01001010 11100001 

01011101 10111100 00011001 
11000000 11000100 00110010 
01011000 10011110 11110111 

00001111 00011100 00000100 
11011101 10101001 11110101 
01111011 11111000 01101100 


11110110 00100001 11100010 
11001100 01011001 00101111 
10110001 10101111 01011110 

10011011 11011001 11010110 
00001000 10000011 00010010 
01011100 10100101 01000000 

11110111 10100110 10001000 
01011101 01000010 00100010 
01011011 01010100 00010001 

11100110 01100001 01011100 
10010101 10110101 10101111 
10111010 01101000 11111010 

11110101 00101000 11100100 
11100011 01110000 00111101 
10010101 10100110 01110100 

11010111 10100111 00101000 
10101000 00011100 10010101 
01001100 01001010 11100001 

01011101 10111100 00011001 
11000000 11000100 00110010 
01011000 10011110 11110111 

00001111 00011100 00000100 
11011101 10101001 11110101 
01111011 11111000 01101100 



11110110 00100001 11100010 
11001100 01011001 00101111 
10110001 10101111 01011110 

10011011 11011001 11010110 
00001000 10000011 00010010 
01011100 10100101 01000000 

11110111 10100110 10001000 
01011101 01000010 00100010 
01011011 01010100 00010001 

11100110 01100001 01011100 
10010101 10110101 10101111 
10111010 01101000 11111010 

11110101 00101000 11100100 
11100011 01110000 00111101 
10010101 10100110 01110100 

11010111 10100111 00101000 
10101000 00011100 10010101 
01001100 01001010 11100001 

01011101 10111100 00011001 
11000000 11000100 00110010 
01011000 10011110 11110111 

00001111 00011100 00000100 
11011101 10101001 11110101 
01111011 11111000 01101100 


11110110 00100001 11100010 
11001100 01011001 00101111 
10110001 10101111 01011110 

10011011 11011001 11010110 
00001000 10000011 00010010 
01011100 10100101 01000000 

11110111 10100110 10001000 
01011101 01000010 00100010 
01011011 01010100 00010001 

11100110 01100001 01011100 
10010101 10110101 10101111 
10111010 01101000 11111010 

11110101 00101000 11100100 
11100011 01110000 00111101 
10010101 10100110 01110100 

11010111 10100111 00101000 
10101000 00011100 10010101 
01001100 01001010 11100001 

01011101 10111100 00011001 
11000000 11000100 00110010 
01011000 10011110 11110111 

00001111 00011100 00000100 
11011101 10101001 11110101 
01111011 11111000 01101100 


11110110 00100001 11100010 
11001100 01011001 00101111 
10110001 10101111 01011110 

10011011 11011001 11010110 
00001000 10000011 00010010 
01011100 10100101 01000000 

11110111 10100110 10001000 
01011101 01000010 00100010 
01011011 01010100 00010001 

11100110 01100001 01011100 
10010101 10110101 10101111 
10111010 01101000 11111010 

11110101 00101000 11100100 
11100011 01110000 00111101 
10010101 10100110 01110100 

11010111 10100111 00101000 
10101000 00011100 10010101 
01001100 01001010 11100001 

01011101 10111100 00011001 
11000000 11000100 00110010 
01011000 10011110 11110111 

00001111 00011100 00000100 
11011101 10101001 11110101 
01111011 11111000 01101100 


11110110 00100001 11100010 
11001100 01011001 00101111 
10110001 10101111 01011110 

10011011 11011001 11010110 
00001000 10000011 00010010 
01011100 10100101 01000000 

11110111 10100110 10001000 
01011101 01000010 00100010 
01011011 01010100 00010001 

11100110 01100001 01011100 
10010101 10110101 10101111 
10111010 01101000 11111010 

11110101 00101000 11100100 
11100011 01110000 00111101 
10010101 10100110 01110100 

11010111 10100111 00101000 
10101000 00011100 10010101 
01001100 01001010 11100001 

01011101 10111100 00011001 
11000000 11000100 00110010 
01011000 10011110 11110111 

00001111 00011100 00000100 
11011101 10101001 11110101 
01111011 11111000 01101100 




00011110 11001000 00000000 
01001111 11000110 10010010 
11010001 11001111 11000111 

11000101 11010000 10000011 
01101110 00001110 10100000 
10100001 10010100 11010011 

11010100 01100100 00101101 
00010000 00100000 01000100 
00100011 01100010 00000100 

01111100 10010000 10111101 
10010101 01011000 11101100 
00101101 01110000 00100101 

01011101 10011011 00011100 
10101101 00101100 11101001 
00100000 10110000 00110011 

00110101 01110011 01101010 
01110011 11100010 11001110 
11011111 10111010 10100011 

10110100 10110011 11111100 
01111110 01000100 11011001 
01100101 10000101 01100011 

10100010 01111000 00000100 
01100111 10010010 00000101 
10011010 01010110 11110111 


00011110 11001000 00000000 
01001111 11000110 10010010 
11010001 11001111 11000111 

11000101 11010000 10000011 
01101110 00001110 10100000 
10100001 10010100 11010011 

11010100 01100100 00101101 
00010000 00100000 01000100 
00100011 01100010 00000100 

01111100 10010000 10111101 
10010101 01011000 11101100 
00101101 01110000 00100101 

01011101 10011011 00011100 
10101101 00101100 11101001 
00100000 10110000 00110011 

00110101 01110011 01101010 
01110011 11100010 11001110 
11011111 10111010 10100011 

10110100 10110011 11111100 
01111110 01000100 11011001 
01100101 10000101 01100011 

10100010 01111000 00000100 
01100111 10010010 00000101 
10011010 01010110 11110111 


00011110 11001000 00000000 
01001111 11000110 10010010 
11010001 11001111 11000111 

11000101 11010000 10000011 
01101110 00001110 10100000 
10100001 10010100 11010011 

11010100 01100100 00101101 
00010000 00100000 01000100 
00100011 01100010 00000100 

01111100 10010000 10111101 
10010101 01011000 11101100 
00101101 01110000 00100101 

01011101 10011011 00011100 
10101101 00101100 11101001 
00100000 10110000 00110011 

00110101 01110011 01101010 
01110011 11100010 11001110 
11011111 10111010 10100011 

10110100 10110011 11111100 
01111110 01000100 11011001 
01100101 10000101 01100011 

10100010 01111000 00000100 
01100111 10010010 00000101 
10011010 01010110 11110111 


00011110 11001000 00000000 
01001111 11000110 10010010 
11010001 11001111 11000111 

11000101 11010000 10000011 
01101110 00001110 10100000 
10100001 10010100 11010011 

11010100 01100100 00101101 
00010000 00100000 01000100 
00100011 01100010 00000100 

01111100 10010000 10111101 
10010101 01011000 11101100 
00101101 01110000 00100101 

01011101 10011011 00011100 
10101101 00101100 11101001 
00100000 10110000 00110011 

00110101 01110011 01101010 
01110011 11100010 11001110 
11011111 10111010 10100011 

10110100 10110011 11111100 
01111110 01000100 11011001 
01100101 10000101 01100011 

10100010 01111000 00000100 
01100111 10010010 00000101 
10011010 01010110 11110111 



00011110 11001000 00000000 
01001111 11000110 10010010 
11010001 11001111 11000111 

11000101 11010000 10000011 
01101110 00001110 10100000 
10100001 10010100 11010011 

11010100 01100100 00101101 
00010000 00100000 01000100 
00100011 01100010 00000100 

01111100 10010000 10111101 
10010101 01011000 11101100 
00101101 01110000 00100101 

01011101 10011011 00011100 
10101101 00101100 11101001 
00100000 10110000 00110011 

00110101 01110011 01101010 
01110011 11100010 11001110 
11011111 10111010 10100011 

10110100 10110011 11111100 
01111110 01000100 11011001 
01100101 10000101 01100011 

10100010 01111000 00000100 
01100111 10010010 00000101 
10011010 01010110 11110111 


00011110 11001000 00000000 
01001111 11000110 10010010 
11010001 11001111 11000111 

11000101 11010000 10000011 
01101110 00001110 10100000 
10100001 10010100 11010011 

11010100 01100100 00101101 
00010000 00100000 01000100 
00100011 01100010 00000100 

01111100 10010000 10111101 
10010101 01011000 11101100 
00101101 01110000 00100101 

01011101 10011011 00011100 
10101101 00101100 11101001 
00100000 10110000 00110011 

00110101 01110011 01101010 
01110011 11100010 11001110 
11011111 10111010 10100011 

10110100 10110011 11111100 
01111110 01000100 11011001 
01100101 10000101 01100011 

10100010 01111000 00000100 
01100111 10010010 00000101 
10011010 01010110 11110111 


00011110 11001000 00000000 
01001111 11000110 10010010 
11010001 11001111 11000111 

11000101 11010000 10000011 
01101110 00001110 10100000 
10100001 10010100 11010011 

11010100 01100100 00101101 
00010000 00100000 01000100 
00100011 01100010 00000100 

01111100 10010000 10111101 
10010101 01011000 11101100 
00101101 01110000 00100101 

01011101 10011011 00011100 
10101101 00101100 11101001 
00100000 10110000 00110011 

00110101 01110011 01101010 
01110011 11100010 11001110 
11011111 10111010 10100011 

10110100 10110011 11111100 
01111110 01000100 11011001 
01100101 10000101 01100011 

10100010 01111000 00000100 
01100111 10010010 00000101 
10011010 01010110 11110111 


00011110 11001000 00000000 
01001111 11000110 10010010 
11010001 11001111 11000111 

11000101 11010000 10000011 
01101110 00001110 10100000 
10100001 10010100 11010011 

11010100 01100100 00101101 
00010000 00100000 01000100 
00100011 01100010 00000100 

01111100 10010000 10111101 
10010101 01011000 11101100 
00101101 01110000 00100101 

01011101 10011011 00011100 
10101101 00101100 11101001 
00100000 10110000 00110011 

00110101 01110011 01101010 
01110011 11100010 11001110 
11011111 10111010 10100011 

10110100 10110011 11111100 
01111110 01000100 11011001 
01100101 10000101 01100011 

10100010 01111000 00000100 
01100111 10010010 00000101 
10011010 01010110 11110111 



00011110 11001000 00000000 
01001111 11000110 10010010 
11010001 11001111 11000111 

11000101 11010000 10000011 
01101110 00001110 10100000 
10100001 10010100 11010011 

11010100 01100100 00101101 
00010000 00100000 01000100 
00100011 01100010 00000100 

01111100 10010000 10111101 
10010101 01011000 11101100 
00101101 01110000 00100101 

01011101 10011011 00011100 
10101101 00101100 11101001 
00100000 10110000 00110011 

00110101 01110011 01101010 
01110011 11100010 11001110 
11011111 10111010 10100011 

10110100 10110011 11111100 
01111110 01000100 11011001 
01100101 10000101 01100011 

10100010 01111000 00000100 
01100111 10010010 00000101 
10011010 01010110 11110111 


00011110 11001000 00000000 
01001111 11000110 10010010 
11010001 11001111 11000111 

11000101 11010000 10000011 
01101110 00001110 10100000 
10100001 10010100 11010011 

11010100 01100100 00101101 
00010000 00100000 01000100 
00100011 01100010 00000100 

01111100 10010000 10111101 
10010101 01011000 11101100 
00101101 01110000 00100101 

01011101 10011011 00011100 
10101101 00101100 11101001 
00100000 10110000 00110011 

00110101 01110011 01101010 
01110011 11100010 11001110 
11011111 10111010 10100011 

10110100 10110011 11111100 
01111110 01000100 11011001 
01100101 10000101 01100011 

10100010 01111000 00000100 
01100111 10010010 00000101 
10011010 01010110 11110111 


00011110 11001000 00000000 
01001111 11000110 10010010 
11010001 11001111 11000111 

11000101 11010000 10000011 
01101110 00001110 10100000 
10100001 10010100 11010011 

11010100 01100100 00101101 
00010000 00100000 01000100 
00100011 01100010 00000100 

01111100 10010000 10111101 
10010101 01011000 11101100 
00101101 01110000 00100101 

01011101 10011011 00011100 
10101101 00101100 11101001 
00100000 10110000 00110011 

00110101 01110011 01101010 
01110011 11100010 11001110 
11011111 10111010 10100011 

10110100 10110011 11111100 
01111110 01000100 11011001 
01100101 10000101 01100011 

10100010 01111000 00000100 
01100111 10010010 00000101 
10011010 01010110 11110111 


00011110 11001000 00000000 
01001111 11000110 10010010 
11010001 11001111 11000111 

11000101 11010000 10000011 
01101110 00001110 10100000 
10100001 10010100 11010011 

11010100 01100100 00101101 
00010000 00100000 01000100 
00100011 01100010 00000100 

01111100 10010000 10111101 
10010101 01011000 11101100 
00101101 01110000 00100101 

01011101 10011011 00011100 
10101101 00101100 11101001 
00100000 10110000 00110011 

00110101 01110011 01101010 
01110011 11100010 11001110 
11011111 10111010 10100011 

10110100 10110011 11111100 
01111110 01000100 11011001 
01100101 10000101 01100011 

10100010 01111000 00000100 
01100111 10010010 00000101 
10011010 01010110 11110111 



00011110 11001000 00000000 
01001111 11000110 10010010 
11010001 11001111 11000111 

11000101 11010000 10000011 
01101110 00001110 10100000 
10100001 10010100 11010011 

11010100 01100100 00101101 
00010000 00100000 01000100 
00100011 01100010 00000100 

01111100 10010000 10111101 
10010101 01011000 11101100 
00101101 01110000 00100101 

01011101 10011011 00011100 
10101101 00101100 11101001 
00100000 10110000 00110011 

00110101 01110011 01101010 
01110011 11100010 11001110 
11011111 10111010 10100011 

10110100 10110011 11111100 
01111110 01000100 11011001 
01100101 10000101 01100011 

10100010 01111000 00000100 
01100111 10010010 00000101 
10011010 01010110 11110111 


00011110 11001000 00000000 
01001111 11000110 10010010 
11010001 11001111 11000111 

11000101 11010000 10000011 
01101110 00001110 10100000 
10100001 10010100 11010011 

11010100 01100100 00101101 
00010000 00100000 01000100 
00100011 01100010 00000100 

01111100 10010000 10111101 
10010101 01011000 11101100 
00101101 01110000 00100101 

01011101 10011011 00011100 
10101101 00101100 11101001 
00100000 10110000 00110011 

00110101 01110011 01101010 
01110011 11100010 11001110 
11011111 10111010 10100011 

10110100 10110011 11111100 
01111110 01000100 11011001 
01100101 10000101 01100011 

10100010 01111000 00000100 
01100111 10010010 00000101 
10011010 01010110 11110111 


00011110 11001000 00000000 
01001111 11000110 10010010 
11010001 11001111 11000111 

11000101 11010000 10000011 
01101110 00001110 10100000 
10100001 10010100 11010011 

11010100 01100100 00101101 
00010000 00100000 01000100 
00100011 01100010 00000100 

01111100 10010000 10111101 
10010101 01011000 11101100 
00101101 01110000 00100101 

01011101 10011011 00011100 
10101101 00101100 11101001 
00100000 10110000 00110011 

00110101 01110011 01101010 
01110011 11100010 11001110 
11011111 10111010 10100011 

10110100 10110011 11111100 
01111110 01000100 11011001 
01100101 10000101 01100011 

10100010 01111000 00000100 
01100111 10010010 00000101 
10011010 01010110 11110111 


00011110 11001000 00000000 
01001111 11000110 10010010 
11010001 11001111 11000111 

11000101 11010000 10000011 
01101110 00001110 10100000 
10100001 10010100 11010011 

11010100 01100100 00101101 
00010000 00100000 01000100 
00100011 01100010 00000100 

01111100 10010000 10111101 
10010101 01011000 11101100 
00101101 01110000 00100101 

01011101 10011011 00011100 
10101101 00101100 11101001 
00100000 10110000 00110011 

00110101 01110011 01101010 
01110011 11100010 11001110 
11011111 10111010 10100011 

10110100 10110011 11111100 
01111110 01000100 11011001 
01100101 10000101 01100011 

10100010 01111000 00000100 
01100111 10010010 00000101 
10011010 01010110 11110111 



00011110 11001000 00000000 
01001111 11000110 10010010 
11010001 11001111 11000111 

11000101 11010000 10000011 
01101110 00001110 10100000 
10100001 10010100 11010011 

11010100 01100100 00101101 
00010000 00100000 01000100 
00100011 01100010 00000100 

01111100 10010000 10111101 
10010101 01011000 11101100 
00101101 01110000 00100101 

01011101 10011011 00011100 
10101101 00101100 11101001 
00100000 10110000 00110011 

00110101 01110011 01101010 
01110011 11100010 11001110 
11011111 10111010 10100011 

10110100 10110011 11111100 
01111110 01000100 11011001 
01100101 10000101 01100011 

10100010 01111000 00000100 
01100111 10010010 00000101 
10011010 01010110 11110111 


00011110 11001000 00000000 
01001111 11000110 10010010 
11010001 11001111 11000111 

11000101 11010000 10000011 
01101110 00001110 10100000 
10100001 10010100 11010011 

11010100 01100100 00101101 
00010000 00100000 01000100 
00100011 01100010 00000100 

01111100 10010000 10111101 
10010101 01011000 11101100 
00101101 01110000 00100101 

01011101 10011011 00011100 
10101101 00101100 11101001 
00100000 10110000 00110011 

00110101 01110011 01101010 
01110011 11100010 11001110 
11011111 10111010 10100011 

10110100 10110011 11111100 
01111110 01000100 11011001 
01100101 10000101 01100011 

10100010 01111000 00000100 
01100111 10010010 00000101 
10011010 01010110 11110111 


00011110 11001000 00000000 
01001111 11000110 10010010 
11010001 11001111 11000111 

11000101 11010000 10000011 
01101110 00001110 10100000 
10100001 10010100 11010011 

11010100 01100100 00101101 
00010000 00100000 01000100 
00100011 01100010 00000100 

01111100 10010000 10111101 
10010101 01011000 11101100 
00101101 01110000 00100101 

01011101 10011011 00011100 
10101101 00101100 11101001 
00100000 10110000 00110011 

00110101 01110011 01101010 
01110011 11100010 11001110 
11011111 10111010 10100011 

10110100 10110011 11111100 
01111110 01000100 11011001 
01100101 10000101 01100011 

10100010 01111000 00000100 
01100111 10010010 00000101 
10011010 01010110 11110111 


00011110 11001000 00000000 
01001111 11000110 10010010 
11010001 11001111 11000111 

11000101 11010000 10000011 
01101110 00001110 10100000 
10100001 10010100 11010011 

11010100 01100100 00101101 
00010000 00100000 01000100 
00100011 01100010 00000100 

01111100 10010000 10111101 
10010101 01011000 11101100 
00101101 01110000 00100101 

01011101 10011011 00011100 
10101101 00101100 11101001 
00100000 10110000 00110011 

00110101 01110011 01101010 
01110011 11100010 11001110 
11011111 10111010 10100011 

10110100 10110011 11111100 
01111110 01000100 11011001 
01100101 10000101 01100011 

10100010 01111000 00000100 
01100111 10010010 00000101 
10011010 01010110 11110111 



00011110 11001000 00000000 
01001111 11000110 10010010 
11010001 11001111 11000111 

11000101 11010000 10000011 
01101110 00001110 10100000 
10100001 10010100 11010011 

11010100 01100100 00101101 
00010000 00100000 01000100 
00100011 01100010 00000100 

01111100 10010000 10111101 
10010101 01011000 11101100 
00101101 01110000 00100101 

01011101 10011011 00011100 
10101101 00101100 11101001 
00100000 10110000 00110011 

00110101 01110011 01101010 
01110011 11100010 11001110 
11011111 10111010 10100011 

10110100 10110011 11111100 
01111110 01000100 11011001 
01100101 10000101 01100011 

10100010 01111000 00000100 
01100111 10010010 00000101 
10011010 01010110 11110111 


00011110 11001000 00000000 
01001111 11000110 10010010 
11010001 11001111 11000111 

11000101 11010000 10000011 
01101110 00001110 10100000 
10100001 10010100 11010011 

11010100 01100100 00101101 
00010000 00100000 01000100 
00100011 01100010 00000100 

01111100 10010000 10111101 
10010101 01011000 11101100 
00101101 01110000 00100101 

01011101 10011011 00011100 
10101101 00101100 11101001 
00100000 10110000 00110011 

00110101 01110011 01101010 
01110011 11100010 11001110 
11011111 10111010 10100011 

10110100 10110011 11111100 
01111110 01000100 11011001 
01100101 10000101 01100011 

10100010 01111000 00000100 
01100111 10010010 00000101 
10011010 01010110 11110111 


00011110 11001000 00000000 
01001111 11000110 10010010 
11010001 11001111 11000111 

11000101 11010000 10000011 
01101110 00001110 10100000 
10100001 10010100 11010011 

11010100 01100100 00101101 
00010000 00100000 01000100 
00100011 01100010 00000100 

01111100 10010000 10111101 
10010101 01011000 11101100 
00101101 01110000 00100101 

01011101 10011011 00011100 
10101101 00101100 11101001 
00100000 10110000 00110011 

00110101 01110011 01101010 
01110011 11100010 11001110 
11011111 10111010 10100011 

10110100 10110011 11111100 
01111110 01000100 11011001 
01100101 10000101 01100011 

10100010 01111000 00000100 
01100111 10010010 00000101 
10011010 01010110 11110111 


00011110 11001000 00000000 
01001111 11000110 10010010 
11010001 11001111 11000111 

11000101 11010000 10000011 
01101110 00001110 10100000 
10100001 10010100 11010011 

11010100 01100100 00101101 
00010000 00100000 01000100 
00100011 01100010 00000100 

01111100 10010000 10111101 
10010101 01011000 11101100 
00101101 01110000 00100101 

01011101 10011011 00011100 
10101101 00101100 11101001 
00100000 10110000 00110011 

00110101 01110011 01101010 
01110011 11100010 11001110 
11011111 10111010 10100011 

10110100 10110011 11111100 
01111110 01000100 11011001 
01100101 10000101 01100011 

10100010 01111000 00000100 
01100111 10010010 00000101 
10011010 01010110 11110111 



00011110 11001000 00000000 
01001111 11000110 10010010 
11010001 11001111 11000111 

11000101 11010000 10000011 
01101110 00001110 10100000 
10100001 10010100 11010011 

11010100 01100100 00101101 
00010000 00100000 01000100 
00100011 01100010 00000100 

01111100 10010000 10111101 
10010101 01011000 11101100 
00101101 01110000 00100101 

01011101 10011011 00011100 
10101101 00101100 11101001 
00100000 10110000 00110011 

00110101 01110011 01101010 
01110011 11100010 11001110 
11011111 10111010 10100011 

10110100 10110011 11111100 
01111110 01000100 11011001 
01100101 10000101 01100011 

10100010 01111000 00000100 
01100111 10010010 00000101 
10011010 01010110 11110111 


00011110 11001000 00000000 
01001111 11000110 10010010 
11010001 11001111 11000111 

11000101 11010000 10000011 
01101110 00001110 10100000 
10100001 10010100 11010011 

11010100 01100100 00101101 
00010000 00100000 01000100 
00100011 01100010 00000100 

01111100 10010000 10111101 
10010101 01011000 11101100 
00101101 01110000 00100101 

01011101 10011011 00011100 
10101101 00101100 11101001 
00100000 10110000 00110011 

00110101 01110011 01101010 
01110011 11100010 11001110 
11011111 10111010 10100011 

10110100 10110011 11111100 
01111110 01000100 11011001 
01100101 10000101 01100011 

10100010 01111000 00000100 
01100111 10010010 00000101 
10011010 01010110 11110111 


00011110 11001000 00000000 
01001111 11000110 10010010 
11010001 11001111 11000111 

11000101 11010000 10000011 
01101110 00001110 10100000 
10100001 10010100 11010011 

11010100 01100100 00101101 
00010000 00100000 01000100 
00100011 01100010 00000100 

01111100 10010000 10111101 
10010101 01011000 11101100 
00101101 01110000 00100101 

01011101 10011011 00011100 
10101101 00101100 11101001 
00100000 10110000 00110011 

00110101 01110011 01101010 
01110011 11100010 11001110 
11011111 10111010 10100011 

10110100 10110011 11111100 
01111110 01000100 11011001 
01100101 10000101 01100011 

10100010 01111000 00000100 
01100111 10010010 00000101 
10011010 01010110 11110111 


00011110 11001000 00000000 
01001111 11000110 10010010 
11010001 11001111 11000111 

11000101 11010000 10000011 
01101110 00001110 10100000 
10100001 10010100 11010011 

11010100 01100100 00101101 
00010000 00100000 01000100 
00100011 01100010 00000100 

01111100 10010000 10111101 
10010101 01011000 11101100 
00101101 01110000 00100101 

01011101 10011011 00011100 
10101101 00101100 11101001 
00100000 10110000 00110011 

00110101 01110011 01101010 
01110011 11100010 11001110 
11011111 10111010 10100011 

10110100 10110011 11111100 
01111110 01000100 11011001 
01100101 10000101 01100011 

10100010 01111000 00000100 
01100111 10010010 00000101 
10011010 01010110 11110111 



00011110 11001000 00000000 
01001111 11000110 10010010 
11010001 11001111 11000111 

11000101 11010000 10000011 
01101110 00001110 10100000 
10100001 10010100 11010011 

11010100 01100100 00101101 
00010000 00100000 01000100 
00100011 01100010 00000100 

01111100 10010000 10111101 
10010101 01011000 11101100 
00101101 01110000 00100101 

01011101 10011011 00011100 
10101101 00101100 11101001 
00100000 10110000 00110011 

00110101 01110011 01101010 
01110011 11100010 11001110 
11011111 10111010 10100011 

10110100 10110011 11111100 
01111110 01000100 11011001 
01100101 10000101 01100011 

10100010 01111000 00000100 
01100111 10010010 00000101 
10011010 01010110 11110111 


00011110 11001000 00000000 
01001111 11000110 10010010 
11010001 11001111 11000111 

11000101 11010000 10000011 
01101110 00001110 10100000 
10100001 10010100 11010011 

11010100 01100100 00101101 
00010000 00100000 01000100 
00100011 01100010 00000100 

01111100 10010000 10111101 
10010101 01011000 11101100 
00101101 01110000 00100101 

01011101 10011011 00011100 
10101101 00101100 11101001 
00100000 10110000 00110011 

00110101 01110011 01101010 
01110011 11100010 11001110 
11011111 10111010 10100011 

10110100 10110011 11111100 
01111110 01000100 11011001 
01100101 10000101 01100011 

10100010 01111000 00000100 
01100111 10010010 00000101 
10011010 01010110 11110111 


00011110 11001000 00000000 
01001111 11000110 10010010 
11010001 11001111 11000111 

11000101 11010000 10000011 
01101110 00001110 10100000 
10100001 10010100 11010011 

11010100 01100100 00101101 
00010000 00100000 01000100 
00100011 01100010 00000100 

01111100 10010000 10111101 
10010101 01011000 11101100 
00101101 01110000 00100101 

01011101 10011011 00011100 
10101101 00101100 11101001 
00100000 10110000 00110011 

00110101 01110011 01101010 
01110011 11100010 11001110 
11011111 10111010 10100011 

10110100 10110011 11111100 
01111110 01000100 11011001 
01100101 10000101 01100011 

10100010 01111000 00000100 
01100111 10010010 00000101 
10011010 01010110 11110111 


00011110 11001000 00000000 
01001111 11000110 10010010 
11010001 11001111 11000111 

11000101 11010000 10000011 
01101110 00001110 10100000 
10100001 10010100 11010011 

11010100 01100100 00101101 
00010000 00100000 01000100 
00100011 01100010 00000100 

01111100 10010000 10111101 
10010101 01011000 11101100 
00101101 01110000 00100101 

01011101 10011011 00011100 
10101101 00101100 11101001 
00100000 10110000 00110011 

00110101 01110011 01101010 
01110011 11100010 11001110 
11011111 10111010 10100011 

10110100 10110011 11111100 
01111110 01000100 11011001 
01100101 10000101 01100011 

10100010 01111000 00000100 
01100111 10010010 00000101 
10011010 01010110 11110111 



00011110 11001000 00000000 
01001111 11000110 10010010 
11010001 11001111 11000111 

11000101 11010000 10000011 
01101110 00001110 10100000 
10100001 10010100 11010011 

11010100 01100100 00101101 
00010000 00100000 01000100 
00100011 01100010 00000100 

01111100 10010000 10111101 
10010101 01011000 11101100 
00101101 01110000 00100101 

01011101 10011011 00011100 
10101101 00101100 11101001 
00100000 10110000 00110011 

00110101 01110011 01101010 
01110011 11100010 11001110 
11011111 10111010 10100011 

10110100 10110011 11111100 
01111110 01000100 11011001 
01100101 10000101 01100011 

10100010 01111000 00000100 
01100111 10010010 00000101 
10011010 01010110 11110111 


00011110 11001000 00000000 
01001111 11000110 10010010 
11010001 11001111 11000111 

11000101 11010000 10000011 
01101110 00001110 10100000 
10100001 10010100 11010011 

11010100 01100100 00101101 
00010000 00100000 01000100 
00100011 01100010 00000100 

01111100 10010000 10111101 
10010101 01011000 11101100 
00101101 01110000 00100101 

01011101 10011011 00011100 
10101101 00101100 11101001 
00100000 10110000 00110011 

00110101 01110011 01101010 
01110011 11100010 11001110 
11011111 10111010 10100011 

10110100 10110011 11111100 
01111110 01000100 11011001 
01100101 10000101 01100011 

10100010 01111000 00000100 
01100111 10010010 00000101 
10011010 01010110 11110111 


00011110 11001000 00000000 
01001111 11000110 10010010 
11010001 11001111 11000111 

11000101 11010000 10000011 
01101110 00001110 10100000 
10100001 10010100 11010011 

11010100 01100100 00101101 
00010000 00100000 01000100 
00100011 01100010 00000100 

01111100 10010000 10111101 
10010101 01011000 11101100 
00101101 01110000 00100101 

01011101 10011011 00011100 
10101101 00101100 11101001 
00100000 10110000 00110011 

00110101 01110011 01101010 
01110011 11100010 11001110 
11011111 10111010 10100011 

10110100 10110011 11111100 
01111110 01000100 11011001 
01100101 10000101 01100011 

10100010 01111000 00000100 
01100111 10010010 00000101 
10011010 01010110 11110111 


00011110 11001000 00000000 
01001111 11000110 10010010 
11010001 11001111 11000111 

11000101 11010000 10000011 
01101110 00001110 10100000 
10100001 10010100 11010011 

11010100 01100100 00101101 
00010000 00100000 01000100 
00100011 01100010 00000100 

01111100 10010000 10111101 
10010101 01011000 11101100 
00101101 01110000 00100101 

01011101 10011011 00011100 
10101101 00101100 11101001 
00100000 10110000 00110011 

00110101 01110011 01101010 
01110011 11100010 11001110 
11011111 10111010 10100011 

10110100 10110011 11111100 
01111110 01000100 11011001 
01100101 10000101 01100011 

10100010 01111000 00000100 
01100111 10010010 00000101 
10011010 01010110 11110111 



00011110 11001000 00000000 
01001111 11000110 10010010 
11010001 11001111 11000111 

11000101 11010000 10000011 
01101110 00001110 10100000 
10100001 10010100 11010011 

11010100 01100100 00101101 
00010000 00100000 01000100 
00100011 01100010 00000100 

01111100 10010000 10111101 
10010101 01011000 11101100 
00101101 01110000 00100101 

01011101 10011011 00011100 
10101101 00101100 11101001 
00100000 10110000 00110011 

00110101 01110011 01101010 
01110011 11100010 11001110 
11011111 10111010 10100011 

10110100 10110011 11111100 
01111110 01000100 11011001 
01100101 10000101 01100011 

10100010 01111000 00000100 
01100111 10010010 00000101 
10011010 01010110 11110111 


00011110 11001000 00000000 
01001111 11000110 10010010 
11010001 11001111 11000111 

11000101 11010000 10000011 
01101110 00001110 10100000 
10100001 10010100 11010011 

11010100 01100100 00101101 
00010000 00100000 01000100 
00100011 01100010 00000100 

01111100 10010000 10111101 
10010101 01011000 11101100 
00101101 01110000 00100101 

01011101 10011011 00011100 
10101101 00101100 11101001 
00100000 10110000 00110011 

00110101 01110011 01101010 
01110011 11100010 11001110 
11011111 10111010 10100011 

10110100 10110011 11111100 
01111110 01000100 11011001 
01100101 10000101 01100011 

10100010 01111000 00000100 
01100111 10010010 00000101 
10011010 01010110 11110111 


00011110 11001000 00000000 
01001111 11000110 10010010 
11010001 11001111 11000111 

11000101 11010000 10000011 
01101110 00001110 10100000 
10100001 10010100 11010011 

11010100 01100100 00101101 
00010000 00100000 01000100 
00100011 01100010 00000100 

01111100 10010000 10111101 
10010101 01011000 11101100 
00101101 01110000 00100101 

01011101 10011011 00011100 
10101101 00101100 11101001 
00100000 10110000 00110011 

00110101 01110011 01101010 
01110011 11100010 11001110 
11011111 10111010 10100011 

10110100 10110011 11111100 
01111110 01000100 11011001 
01100101 10000101 01100011 

10100010 01111000 00000100 
01100111 10010010 00000101 
10011010 01010110 11110111 


00011110 11001000 00000000 
01001111 11000110 10010010 
11010001 11001111 11000111 

11000101 11010000 10000011 
01101110 00001110 10100000 
10100001 10010100 11010011 

11010100 01100100 00101101 
00010000 00100000 01000100 
00100011 01100010 00000100 

01111100 10010000 10111101 
10010101 01011000 11101100 
00101101 01110000 00100101 

01011101 10011011 00011100 
10101101 00101100 11101001 
00100000 10110000 00110011 

00110101 01110011 01101010 
01110011 11100010 11001110 
11011111 10111010 10100011 

10110100 10110011 11111100 
01111110 01000100 11011001 
01100101 10000101 01100011 

10100010 01111000 00000100 
01100111 10010010 00000101 
10011010 01010110 11110111 



00011110 11001000 00000000 
01001111 11000110 10010010 
11010001 11001111 11000111 

11000101 11010000 10000011 
01101110 00001110 10100000 
10100001 10010100 11010011 

11010100 01100100 00101101 
00010000 00100000 01000100 
00100011 01100010 00000100 

01111100 10010000 10111101 
10010101 01011000 11101100 
00101101 01110000 00100101 

01011101 10011011 00011100 
10101101 00101100 11101001 
00100000 10110000 00110011 

00110101 01110011 01101010 
01110011 11100010 11001110 
11011111 10111010 10100011 

10110100 10110011 11111100 
01111110 01000100 11011001 
01100101 10000101 01100011 

10100010 01111000 00000100 
01100111 10010010 00000101 
10011010 01010110 11110111 


00011110 11001000 00000000 
01001111 11000110 10010010 
11010001 11001111 11000111 

11000101 11010000 10000011 
01101110 00001110 10100000 
10100001 10010100 11010011 

11010100 01100100 00101101 
00010000 00100000 01000100 
00100011 01100010 00000100 

01111100 10010000 10111101 
10010101 01011000 11101100 
00101101 01110000 00100101 

01011101 10011011 00011100 
10101101 00101100 11101001 
00100000 10110000 00110011 

00110101 01110011 01101010 
01110011 11100010 11001110 
11011111 10111010 10100011 

10110100 10110011 11111100 
01111110 01000100 11011001 
01100101 10000101 01100011 

10100010 01111000 00000100 
01100111 10010010 00000101 
10011010 01010110 11110111 


00011110 11001000 00000000 
01001111 11000110 10010010 
11010001 11001111 11000111 

11000101 11010000 10000011 
01101110 00001110 10100000 
10100001 10010100 11010011 

11010100 01100100 00101101 
00010000 00100000 01000100 
00100011 01100010 00000100 

01111100 10010000 10111101 
10010101 01011000 11101100 
00101101 01110000 00100101 

01011101 10011011 00011100 
10101101 00101100 11101001 
00100000 10110000 00110011 

00110101 01110011 01101010 
01110011 11100010 11001110 
11011111 10111010 10100011 

